<pad>	0
<s>	0
</s>	0
<unk>	0
▁.	-1.85837
▁i	-3.41903
▁re	-3.58197
▁je	-3.58852
▁m	-3.58962
▁you	-3.6329
▁suis	-3.95125
▁a	-4.11904
▁est	-4.27681
▁vous	-4.28931
▁pas	-4.40541
▁he	-4.4161
▁de	-4.46855
▁not	-4.52964
▁il	-4.61086
▁is	-4.64201
▁to	-4.66747
▁nous	-4.70396
▁tu	-4.72164
▁etes	-4.73535
▁we	-4.75046
▁s	-4.79891
▁ne	-4.85787
▁es	-4.96869
▁en	-5.0407
▁n	-5.12776
▁the	-5.14893
▁un	-5.15956
▁very	-5.22374
▁are	-5.22562
▁sommes	-5.22656
▁of	-5.25069
▁she	-5.25223
▁am	-5.31888
▁they	-5.3702
▁elle	-5.38917
▁la	-5.48612
▁tres	-5.54525
s	-5.57003
▁c	-5.57798
▁me	-5.61358
▁que	-5.67344
▁le	-5.67838
▁in	-5.70521
▁sont	-5.71119
▁j	-5.75171
▁going	-5.75312
▁une	-5.89392
▁t	-5.90323
▁d	-5.92781
▁ai	-5.95434
▁my	-5.96327
▁pour	-5.97923
▁l	-5.97985
▁for	-5.98138
▁all	-5.99974
▁ils	-6.02511
▁plus	-6.06653
▁ce	-6.08734
▁?	-6.12007
▁!	-6.16219
▁des	-6.16865
▁as	-6.20697
▁at	-6.26256
▁on	-6.28162
▁here	-6.28585
▁vais	-6.28813
▁with	-6.33387
▁that	-6.34673
▁good	-6.38183
▁tom	-6.38204
▁elles	-6.3967
▁your	-6.44669
▁moi	-6.46172
▁too	-6.46569
e	-6.50755
▁this	-6.52055
▁sorry	-6.53085
▁train	-6.55496
▁mon	-6.55883
▁trop	-6.5732
▁fort	-6.59464
▁si	-6.62439
▁sure	-6.64344
▁ici	-6.67561
▁du	-6.68097
▁glad	-6.69987
▁toujours	-6.71222
▁toi	-6.71276
▁it	-6.72328
▁than	-6.74376
▁now	-6.7632
▁tout	-6.78093
▁tous	-6.78315
▁happy	-6.78972
▁about	-6.79646
▁sur	-6.80435
▁les	-6.81892
▁so	-6.81973
▁vraiment	-6.82389
▁aren	-6.82434
▁tired	-6.85207
▁afraid	-6.85923
▁te	-6.86515
▁right	-6.88845
▁an	-6.90071
▁out	-6.91093
▁his	-6.91855
▁dans	-6.93947
▁really	-6.95012
▁one	-6.96456
▁avec	-6.96546
▁avoir	-6.9735
▁qu	-6.98947
▁encore	-6.99804
▁busy	-7.00631
▁still	-7.01475
▁just	-7.01815
▁old	-7.0486
▁always	-7.05764
▁votre	-7.08433
▁looking	-7.11176
▁au	-7.11256
▁peur	-7.11916
▁be	-7.12062
▁son	-7.12662
▁ca	-7.12762
▁y	-7.13055
▁desole	-7.13395
▁bon	-7.14562
▁bien	-7.14951
▁fais	-7.16858
▁toutes	-7.17072
▁no	-7.1881
▁heureux	-7.20899
▁friend	-7.21529
▁	-7.26974
▁faire	-7.27231
▁etre	-7.27238
▁her	-7.27768
▁ma	-7.30752
▁aussi	-7.31672
▁ready	-7.31672
▁assez	-7.32822
▁par	-7.35015
▁by	-7.35146
▁lui	-7.3874
▁tellement	-7.38742
▁and	-7.39995
▁et	-7.41798
▁fatigue	-7.41816
▁teacher	-7.42087
▁se	-7.43137
▁from	-7.43747
▁getting	-7.43748
▁mes	-7.4595
▁him	-7.46347
▁grand	-7.47073
▁fait	-7.47218
▁ton	-7.47858
▁juste	-7.48465
▁alone	-7.50379
▁being	-7.50444
▁home	-7.5176
▁maintenant	-7.5176
▁desolee	-7.53
r	-7.5304
▁peu	-7.53084
▁go	-7.53092
▁avons	-7.53181
▁have	-7.5458
▁up	-7.5458
▁allons	-7.54756
▁deux	-7.56157
▁qui	-7.57032
▁help	-7.58917
▁vieux	-7.58967
▁doing	-7.58999
▁see	-7.59692
▁bonne	-7.61624
▁proud	-7.62
▁man	-7.621
▁content	-7.62905
▁comme	-7.6362
▁married	-7.65129
▁voir	-7.65129
▁kind	-7.66731
▁ami	-7.67839
ing	-7.67944
es	-7.68048
▁age	-7.69054
▁who	-7.70007
▁fille	-7.71308
▁waiting	-7.73411
▁homme	-7.74755
▁sa	-7.76175
▁occupe	-7.76328
▁jeune	-7.76587
▁temps	-7.76926
▁person	-7.78723
▁ans	-7.7966
▁fini	-7.80167
▁new	-7.80171
▁va	-7.80177
▁yet	-7.8057
▁young	-7.82578
▁certain	-7.83719
▁travail	-7.84219
▁danger	-7.84339
▁rejouis	-7.84351
▁late	-7.84436
▁raison	-7.85886
▁chez	-7.86292
▁done	-7.86354
▁do	-7.8642
▁friends	-7.87024
▁pret	-7.8814
▁anymore	-7.88275
▁cette	-7.88278
ons	-7.88521
▁time	-7.89892
▁meme	-7.89919
▁faim	-7.90299
▁such	-7.90299
▁hungry	-7.90299
▁work	-7.9229
▁sick	-7.92369
▁like	-7.94445
▁forward	-7.94478
▁aux	-7.94744
▁intelligent	-7.96024
▁heureuse	-7.96241
▁student	-7.96244
▁retard	-7.96628
▁worried	-7.96628
▁working	-7.96674
▁only	-7.96701
▁mal	-7.97022
▁back	-7.9883
▁liar	-8.00677
▁enfant	-8.00698
▁hui	-8.01064
▁aujourd	-8.01081
▁enough	-8.01081
▁pere	-8.01083
▁crains	-8.01089
▁if	-8.01709
▁apres	-8.03402
▁today	-8.03405
▁free	-8.04678
▁our	-8.05347
▁beaucoup	-8.05742
▁avez	-8.05744
▁girl	-8.07765
▁ses	-8.07919
▁cela	-8.08157
▁colere	-8.08157
▁pretty	-8.08158
▁maison	-8.08162
▁used	-8.08176
▁aller	-8.08393
▁job	-8.10236
▁demain	-8.10631
▁tomorrow	-8.10631
▁father	-8.10631
▁interested	-8.10631
▁amie	-8.10635
▁same	-8.10651
▁aider	-8.10665
▁us	-8.12946
▁again	-8.13167
▁early	-8.13168
▁more	-8.1325
▁notre	-8.13475
er	-8.13774
▁fier	-8.15168
▁seul	-8.15173
▁personne	-8.15475
▁love	-8.15726
▁beautiful	-8.15771
▁tennis	-8.15771
▁but	-8.15773
▁over	-8.15773
▁hard	-8.15774
▁coming	-8.15776
▁taller	-8.15799
▁years	-8.15811
▁trouble	-8.18427
▁child	-8.18443
▁little	-8.18444
▁wrong	-8.18444
▁dead	-8.18477
▁making	-8.1848
▁off	-8.18554
▁partir	-8.19277
z	-8.1933
▁idiot	-8.2059
▁brave	-8.20788
▁partie	-8.2084
▁occupee	-8.21047
▁grande	-8.21129
▁smart	-8.21161
▁tall	-8.21161
▁crazy	-8.2119
▁leaving	-8.2119
▁completement	-8.21191
▁isn	-8.21531
▁amis	-8.21995
▁porte	-8.23568
▁strong	-8.23984
▁funny	-8.24014
▁big	-8.24014
▁securite	-8.24016
▁taking	-8.24018
▁can	-8.2436
▁impatient	-8.25432
▁professeur	-8.26518
▁car	-8.26582
▁both	-8.2689
▁bad	-8.26909
▁clever	-8.2692
▁drunk	-8.2692
▁english	-8.2692
▁french	-8.2692
▁much	-8.2692
▁presque	-8.26922
▁feeling	-8.26929
▁talented	-8.26929
▁non	-8.2714
▁fou	-8.27964
▁belle	-8.29524
▁bit	-8.29912
▁plutot	-8.29912
▁sens	-8.29913
▁invited	-8.29919
▁attends	-8.30157
▁commence	-8.32603
▁quelque	-8.32663
▁anglais	-8.32834
▁angry	-8.32998
▁rien	-8.32998
▁best	-8.33
▁surprised	-8.33011
▁nice	-8.33019
▁etudiant	-8.35584
▁femme	-8.35786
▁seule	-8.3597
▁safe	-8.3618
▁better	-8.36181
▁voiture	-8.36181
▁way	-8.36181
▁playing	-8.36192
▁trying	-8.36209
▁mine	-8.39003
▁francais	-8.3931
▁cherche	-8.39395
▁nouveau	-8.39465
▁court	-8.39468
▁anything	-8.39469
▁desormais	-8.39469
▁leave	-8.39469
▁termine	-8.39469
▁upset	-8.39469
▁mourir	-8.39469
▁money	-8.39469
▁impressed	-8.3947
▁sleepy	-8.39473
▁smarter	-8.39504
▁well	-8.39509
▁ont	-8.39618
▁soir	-8.39697
▁there	-8.39963
▁part	-8.41138
▁chose	-8.42475
▁doctor	-8.42478
▁marre	-8.42818
▁get	-8.42865
▁having	-8.4287
▁reading	-8.42938
▁mais	-8.43162
▁ta	-8.45015
▁habitue	-8.45775
▁contente	-8.46283
▁almost	-8.46388
▁argent	-8.46388
▁behind	-8.46388
▁mieux	-8.46388
▁pleased	-8.4639
▁oldest	-8.46391
▁supposed	-8.46394
▁quite	-8.46413
▁mad	-8.46531
▁normal	-8.48218
nt	-8.48369
▁malade	-8.49697
▁short	-8.50006
▁wearing	-8.50036
▁some	-8.50045
▁travaille	-8.5021
▁stupid	-8.51402
▁vieille	-8.51914
▁marie	-8.53229
▁libre	-8.53436
▁will	-8.53758
▁disappointed	-8.53822
▁finished	-8.53822
▁point	-8.53822
▁viens	-8.53822
▁moment	-8.53822
▁sans	-8.53858
▁fatiguee	-8.53909
▁seeing	-8.53936
▁faites	-8.53981
▁toute	-8.54343
▁petit	-8.57141
▁meilleur	-8.57153
▁aide	-8.57338
▁aime	-8.57549
▁meet	-8.57744
▁attractive	-8.57757
▁derriere	-8.57757
▁lazy	-8.57757
▁vont	-8.57758
▁lucky	-8.57765
▁tort	-8.57765
▁fois	-8.57774
▁parle	-8.58397
▁enfants	-8.58436
▁students	-8.58467
▁vas	-8.58591
ed	-8.58734
ment	-8.59287
▁type	-8.61462
▁timid	-8.61641
▁everything	-8.61853
▁next	-8.61853
▁sophisticated	-8.61853
▁naive	-8.61853
▁what	-8.61856
▁woman	-8.61856
▁confused	-8.61857
▁curious	-8.61867
▁thinking	-8.61879
▁monde	-8.61888
▁trained	-8.62
▁faisons	-8.62013
▁prete	-8.65071
▁interesse	-8.65494
▁mort	-8.65639
▁menteur	-8.65731
▁guy	-8.65737
▁make	-8.65853
▁rich	-8.65914
▁fiere	-8.65987
▁ashamed	-8.66124
▁chef	-8.66124
▁exhausted	-8.66124
▁genre	-8.66124
▁giving	-8.66124
▁honte	-8.66124
▁cold	-8.66124
▁gentleman	-8.66124
▁lying	-8.66134
▁their	-8.66224
▁allez	-8.66263
▁older	-8.66271
▁plein	-8.67664
re	-8.68944
▁different	-8.69987
▁satisfait	-8.69988
▁leur	-8.70165
▁garcon	-8.70185
▁boy	-8.70186
▁gentille	-8.702
▁riche	-8.70363
▁mauvais	-8.70374
▁mariee	-8.70381
▁fond	-8.70462
▁wise	-8.70536
▁already	-8.70586
▁deja	-8.70586
▁japanese	-8.70586
▁welcome	-8.70586
▁studying	-8.70597
▁eating	-8.70602
▁parler	-8.7065
▁travailler	-8.70653
▁them	-8.70727
▁dis	-8.70867
d	-8.715
y	-8.71524
▁ces	-8.72639
▁derange	-8.7458
▁attend	-8.74814
▁medecin	-8.74865
▁hurt	-8.7521
▁serious	-8.75244
▁celui	-8.75256
▁revoir	-8.75256
▁something	-8.75256
▁around	-8.75256
▁running	-8.75256
▁staying	-8.75256
▁watching	-8.75266
▁come	-8.75277
▁any	-8.75362
▁fast	-8.75362
▁brother	-8.79769
▁frere	-8.7977
▁children	-8.80155
▁convinced	-8.80155
▁ensemble	-8.80155
▁living	-8.80155
▁lost	-8.80155
▁two	-8.80155
▁actuellement	-8.80155
▁poor	-8.80155
▁rude	-8.80155
▁careful	-8.80155
▁jamais	-8.80155
▁wasting	-8.80156
▁fine	-8.80163
▁probablement	-8.80164
▁dying	-8.80167
▁parents	-8.80172
▁longer	-8.80181
▁learning	-8.80186
▁dur	-8.80225
▁aware	-8.80231
▁mere	-8.80761
t	-8.82964
▁joue	-8.83372
▁enseignant	-8.84698
▁affaire	-8.84778
▁gentil	-8.84908
▁innocent	-8.85143
▁fat	-8.8515
▁ravi	-8.8515
▁trouve	-8.85232
▁open	-8.8526
▁vie	-8.85276
▁delighted	-8.85306
▁disturbed	-8.85306
▁involved	-8.85306
▁satisfied	-8.85306
▁famille	-8.85306
▁skinny	-8.85307
▁completely	-8.85307
▁listening	-8.85308
▁nager	-8.85308
▁scared	-8.85308
▁mother	-8.8531
▁totally	-8.85311
▁fils	-8.85325
▁dire	-8.85332
▁never	-8.85335
▁entendre	-8.85339
▁manger	-8.8534
▁able	-8.85348
▁ur	-8.85527
▁seuls	-8.86082
▁jouer	-8.87256
▁don	-8.87483
ly	-8.89983
▁capable	-8.90337
▁succes	-8.90353
▁timide	-8.9055
▁forme	-8.90573
▁patient	-8.90579
▁vrai	-8.90626
▁close	-8.90649
▁etudie	-8.90683
▁cute	-8.9069
▁terrible	-8.90718
▁beau	-8.90729
▁adorable	-8.90737
▁boston	-8.90737
▁family	-8.90737
▁probably	-8.90737
▁egalement	-8.90737
▁own	-8.90741
▁simplement	-8.90741
▁embarrassed	-8.90742
▁dressed	-8.90752
▁peux	-8.90755
▁talking	-8.90771
▁liked	-8.9078
▁sommeil	-8.90788
▁ll	-8.90791
▁die	-8.90837
▁younger	-8.9095
▁souffre	-8.90968
▁cet	-8.91074
▁mary	-8.91219
▁seules	-8.91522
▁tot	-8.9192
▁inquiete	-8.9333
ur	-8.94255
▁yours	-8.95389
▁talent	-8.96067
▁responsable	-8.96095
▁win	-8.9648
▁anxious	-8.9648
▁frightened	-8.9648
▁responsible	-8.9648
▁sujet	-8.9648
▁ville	-8.9648
▁wonderful	-8.9648
▁jealous	-8.9648
▁perdre	-8.96483
▁tonight	-8.96484
▁concerned	-8.96485
▁lire	-8.96496
▁tv	-8.96496
▁intelligente	-8.96514
▁likely	-8.96518
▁mood	-8.96618
▁success	-8.96887
▁pars	-8.98423
▁bons	-8.98907
▁music	-9.00909
▁convaincu	-9.01972
▁american	-9.02176
▁book	-9.02184
▁nouvelle	-9.02192
▁celle	-9.02248
▁probleme	-9.02326
▁saint	-9.02463
▁hear	-9.02494
▁compte	-9.02518
▁know	-9.02564
▁great	-9.02573
▁equipe	-9.02573
▁musique	-9.02573
▁nervous	-9.02573
▁performance	-9.02573
▁school	-9.02573
▁alive	-9.02573
▁accustomed	-9.02574
▁loin	-9.02576
▁team	-9.0258
▁singer	-9.02588
▁soif	-9.02588
▁prendre	-9.0259
▁rencontrer	-9.02605
▁prends	-9.02644
▁need	-9.03792
▁classe	-9.04714
▁inquiet	-9.05621
▁p	-9.07405
▁pense	-9.08545
▁gros	-9.08652
▁cote	-9.08664
▁livre	-9.08669
▁drole	-9.08693
▁surpris	-9.08839
▁demande	-9.09026
▁full	-9.09045
▁sweet	-9.09061
▁beginning	-9.09062
▁bored	-9.09062
▁college	-9.09062
▁enemy	-9.09062
▁expert	-9.09062
▁familiar	-9.09062
▁froid	-9.09062
▁nuts	-9.09062
▁succeed	-9.09062
▁tough	-9.09062
▁triste	-9.09062
▁twice	-9.09062
▁universite	-9.09062
▁shopping	-9.09062
▁famous	-9.09062
▁thirsty	-9.09063
▁single	-9.09064
▁together	-9.09067
▁starting	-9.09074
▁duty	-9.09075
▁vos	-9.09098
▁regarder	-9.09102
▁night	-9.09102
▁sois	-9.09175
▁sous	-9.09477
▁problemes	-9.09525
▁etudiants	-9.09865
▁b	-9.10035
▁real	-9.10277
▁aies	-9.10708
▁ve	-9.11543
▁tell	-9.11682
▁etranger	-9.12805
▁japonais	-9.14173
▁sad	-9.14412
▁artist	-9.15388
▁problem	-9.15404
▁difficile	-9.15602
▁game	-9.15608
▁celibataire	-9.15611
▁chance	-9.15615
▁erreur	-9.15615
▁artiste	-9.15757
▁adore	-9.15916
▁talk	-9.15925
▁think	-9.15927
▁call	-9.1596
▁boss	-9.15984
▁business	-9.15998
▁under	-9.15998
▁swim	-9.16
▁ainsi	-9.16001
▁complaining	-9.16001
▁confiance	-9.16001
▁daughter	-9.16001
▁essaie	-9.16001
▁offended	-9.16001
▁often	-9.16001
▁opinion	-9.16001
▁resilient	-9.16001
▁resourceful	-9.16001
▁ressources	-9.16001
▁semaine	-9.16001
▁soyez	-9.16001
▁writing	-9.16001
▁honest	-9.16001
▁joking	-9.16001
▁life	-9.16001
▁powerful	-9.16001
▁service	-9.16001
▁week	-9.16002
▁souvent	-9.16003
▁shy	-9.16004
▁parfaitement	-9.16005
▁apprendre	-9.16009
▁ecole	-9.16011
▁addicted	-9.16012
▁buying	-9.16027
▁vite	-9.16034
▁understanding	-9.16039
▁telling	-9.16048
▁got	-9.16092
▁side	-9.16113
▁far	-9.16415
▁pretes	-9.16836
▁amies	-9.17463
▁bonnes	-9.17825
▁important	-9.19878
▁class	-9.20882
▁tes	-9.21564
▁sort	-9.22836
▁invite	-9.22854
▁menteuse	-9.23065
▁pauvre	-9.23065
▁day	-9.23079
▁impressionne	-9.23164
▁impressionnee	-9.2322
▁amour	-9.23252
▁cruel	-9.23287
▁entraine	-9.23301
▁mauvaise	-9.23334
▁emotional	-9.23444
▁absent	-9.23458
▁away	-9.23458
▁chemin	-9.23458
▁critique	-9.23458
▁death	-9.23458
▁dedans	-9.23458
▁dessus	-9.23458
▁double	-9.23458
▁eager	-9.23458
▁generous	-9.23458
▁homework	-9.23458
▁nuit	-9.23458
▁patience	-9.23458
▁sympa	-9.23458
▁vacances	-9.23458
▁grave	-9.23458
▁stuck	-9.23458
▁three	-9.23458
▁comprendre	-9.23458
▁kidding	-9.23459
▁police	-9.23459
▁talentueux	-9.23459
▁sensible	-9.2346
▁broke	-9.23464
▁annoying	-9.23465
▁incroyablement	-9.23466
▁attention	-9.23473
▁fed	-9.23474
▁losing	-9.23476
▁gone	-9.23488
▁sister	-9.23488
▁trois	-9.23499
▁voyager	-9.23508
▁depressed	-9.23516
▁last	-9.23544
▁excuses	-9.23545
▁worker	-9.23568
▁certaine	-9.23675
▁ravie	-9.23687
▁nouvelles	-9.23935
▁manquer	-9.23936
▁jeunes	-9.25141
▁occupes	-9.25146
▁head	-9.28363
▁malin	-9.28714
▁hero	-9.29666
▁understand	-9.31083
▁mistake	-9.31121
▁secret	-9.31126
▁other	-9.31129
▁thing	-9.31135
▁conscient	-9.31358
▁voyage	-9.31423
▁miss	-9.31464
▁habituee	-9.31482
▁cook	-9.31491
▁luck	-9.31511
▁weak	-9.31515
▁besoin	-9.31516
▁courageux	-9.31516
▁creative	-9.31516
▁curieux	-9.31516
▁desperate	-9.31516
▁driving	-9.31516
▁expecting	-9.31516
▁first	-9.31516
▁honnete	-9.31516
▁impossible	-9.31516
▁lettre	-9.31516
▁lot	-9.31516
▁myself	-9.31516
▁paresseux	-9.31516
▁people	-9.31516
▁productive	-9.31516
▁retired	-9.31516
▁sensitive	-9.31516
▁serieux	-9.31516
▁through	-9.31516
▁venir	-9.31516
▁rather	-9.31516
▁stylish	-9.31516
▁ayez	-9.31516
▁conduire	-9.31516
▁dix	-9.31516
▁house	-9.31516
▁special	-9.31516
▁everybody	-9.31516
▁lonely	-9.31517
▁humeur	-9.31517
▁fun	-9.31517
▁amoureux	-9.31519
▁bothered	-9.3153
▁town	-9.31537
▁asking	-9.31555
▁sitting	-9.31581
▁joueur	-9.31608
▁willing	-9.31613
▁tete	-9.31627
▁jours	-9.31749
▁devoirs	-9.31772
▁affaires	-9.3214
ez	-9.32256
▁mean	-9.32337
▁choses	-9.32456
▁prochaine	-9.32563
▁quelques	-9.326
▁arrive	-9.32648
▁forte	-9.3375
a	-9.34888
▁connu	-9.38569
se	-9.39322
▁ouvert	-9.3967
▁emploi	-9.39718
▁regarde	-9.39789
▁mignon	-9.39881
▁situation	-9.39881
▁mignonne	-9.39887
▁propre	-9.39892
▁suppose	-9.40102
▁premier	-9.40118
▁employe	-9.40162
▁petite	-9.40238
▁mange	-9.4024
▁dress	-9.40262
▁donne	-9.40262
▁want	-9.40264
▁nature	-9.40274
▁patron	-9.40275
▁protect	-9.40277
▁after	-9.4028
▁avance	-9.4028
▁awesome	-9.4028
▁ceci	-9.4028
▁chouette	-9.4028
▁confident	-9.4028
▁esprit	-9.4028
▁grateful	-9.4028
▁husband	-9.4028
▁incredibly	-9.4028
▁innocence	-9.4028
▁rapide	-9.4028
▁recherche	-9.4028
▁sharp	-9.4028
▁suffering	-9.4028
▁telephone	-9.4028
▁yourself	-9.4028
▁crafty	-9.40281
▁each	-9.40281
▁forgetful	-9.40281
▁finally	-9.40281
▁instituteur	-9.40281
▁observant	-9.40281
▁selfish	-9.40281
▁entre	-9.40281
▁thirty	-9.40282
▁office	-9.40283
▁pouvons	-9.40284
▁interesting	-9.40284
▁boire	-9.40284
▁fit	-9.40286
▁hiding	-9.40288
▁room	-9.4029
▁contre	-9.40294
▁chanceux	-9.40294
▁armed	-9.40296
▁allowed	-9.40303
▁soit	-9.40305
▁chiens	-9.40313
▁idees	-9.40314
▁marcher	-9.40315
▁gagner	-9.40315
▁lit	-9.40337
▁dogs	-9.40348
▁trouver	-9.40374
▁rends	-9.40384
▁idiote	-9.40403
▁unique	-9.40408
▁bed	-9.40466
▁autres	-9.4049
▁apprends	-9.4049
▁bebe	-9.40606
▁danser	-9.40631
▁things	-9.40702
▁days	-9.40738
▁quitter	-9.40778
▁letter	-9.40972
▁blame	-9.41002
▁ete	-9.41047
▁makes	-9.41335
▁grands	-9.42975
▁impatiente	-9.43751
▁six	-9.44292
age	-9.44398
▁pleine	-9.45551
n	-9.45754
▁plante	-9.45968
▁stupide	-9.4627
▁desespere	-9.47689
▁tire	-9.48474
able	-9.48511
▁prochain	-9.48644
▁souci	-9.49041
▁perdu	-9.49262
▁decu	-9.4928
▁contrarie	-9.49281
▁elegant	-9.49286
▁charge	-9.49488
▁curieuse	-9.49488
▁stranger	-9.4951
▁attirante	-9.49597
▁contrariee	-9.49651
▁elegante	-9.49654
▁mari	-9.49655
▁creve	-9.49667
▁pres	-9.49673
▁quelqu	-9.49678
▁autorise	-9.49767
▁speak	-9.49813
▁prepare	-9.49817
▁drive	-9.49833
▁drink	-9.49843
▁travel	-9.49843
▁satisfaite	-9.49848
▁wreck	-9.49868
▁probable	-9.49869
▁perfect	-9.49874
▁reussir	-9.49881
▁propos	-9.49883
▁acquainted	-9.49888
▁actually	-9.49888
▁ambition	-9.49888
▁ambitious	-9.49888
▁astute	-9.49888
▁brought	-9.49888
▁bureau	-9.49888
▁champion	-9.49888
▁dinner	-9.49888
▁ecrivain	-9.49888
▁fortunate	-9.49888
▁gars	-9.49888
▁horrible	-9.49888
▁karate	-9.49888
▁midi	-9.49888
▁paid	-9.49888
▁pouvoir	-9.49888
▁related	-9.49888
▁swimming	-9.49888
▁tokyo	-9.49888
▁university	-9.49888
▁vivre	-9.49888
▁ivre	-9.49888
▁nothing	-9.49888
▁silly	-9.49888
▁nulle	-9.49888
▁acting	-9.49889
▁ok	-9.49889
▁absolutely	-9.49889
▁place	-9.49889
▁font	-9.49892
▁enjoying	-9.49892
▁travaillons	-9.49892
▁shocked	-9.49893
▁engaged	-9.49894
▁counting	-9.49895
▁dirigeons	-9.49895
▁every	-9.49895
▁facilement	-9.49901
▁jolie	-9.49902
▁robe	-9.49902
▁singing	-9.49905
▁writer	-9.49905
▁trip	-9.49913
▁teaching	-9.49914
▁leader	-9.49917
▁ecouter	-9.49917
▁evening	-9.49923
▁speaking	-9.49932
▁been	-9.49946
▁attendre	-9.49946
▁came	-9.49958
▁hearing	-9.49959
▁weight	-9.49984
▁sante	-9.5005
▁sorte	-9.50094
▁helping	-9.50189
▁master	-9.50198
▁dure	-9.50206
▁rende	-9.50261
▁mistakes	-9.50353
▁sage	-9.50366
▁riches	-9.50872
▁maries	-9.5096
▁fous	-9.5119
le	-9.51424
▁prets	-9.51856
on	-9.5208
que	-9.52661
te	-9.52917
▁parfait	-9.54779
▁agee	-9.55865
▁rencontre	-9.56419
▁arrogant	-9.56486
▁ignorant	-9.56486
▁vire	-9.56497
ie	-9.56548
▁mechant	-9.57629
▁americain	-9.58282
▁plan	-9.59706
▁blesse	-9.59886
▁saoul	-9.5989
▁manque	-9.59902
▁egoiste	-9.60118
▁coward	-9.60127
▁kid	-9.60128
▁course	-9.60181
▁apprecie	-9.60315
▁invitee	-9.60358
▁mec	-9.60372
▁surprise	-9.60375
▁convaincue	-9.60408
▁learn	-9.60423
▁cuisine	-9.60462
▁walk	-9.60472
▁retour	-9.60511
▁result	-9.60514
▁afternoon	-9.60517
▁available	-9.60517
▁cinq	-9.60517
▁cool	-9.60517
▁dimanche	-9.60517
▁ennuis	-9.60517
▁everyone	-9.60517
▁familier	-9.60517
▁girlfriend	-9.60517
▁greedy	-9.60517
▁guilty	-9.60517
▁ideas	-9.60517
▁incorrigible	-9.60517
▁manager	-9.60517
▁nerveux	-9.60517
▁psychic	-9.60517
▁recognize	-9.60517
▁sneaky	-9.60517
▁stubborn	-9.60517
▁truth	-9.60517
▁vacation	-9.60517
▁weather	-9.60517
▁winning	-9.60517
▁without	-9.60517
▁bateau	-9.60517
▁instant	-9.60517
▁into	-9.60517
▁lose	-9.60517
▁poste	-9.60517
▁suffisamment	-9.60517
▁verite	-9.60517
▁television	-9.60517
▁fan	-9.60518
▁foolish	-9.60518
▁chanteuse	-9.60519
▁entierement	-9.60519
▁against	-9.6052
▁resultat	-9.6052
▁maligne	-9.6052
▁fired	-9.6052
▁hot	-9.60521
▁safety	-9.60521
▁super	-9.60524
▁baby	-9.60525
▁poids	-9.60525
▁popular	-9.60525
▁veux	-9.60526
▁attendent	-9.60527
▁dejeuner	-9.60532
▁accord	-9.60534
▁known	-9.60534
▁acheter	-9.60535
▁eux	-9.60551
▁sortir	-9.60552
▁loud	-9.60564
▁sortons	-9.60573
▁missing	-9.60577
▁seulement	-9.60595
▁chats	-9.606
▁f	-9.60604
▁bother	-9.60611
▁chercher	-9.60699
▁file	-9.60728
▁tele	-9.60739
▁problems	-9.61123
▁brothers	-9.61383
▁freres	-9.61384
▁libres	-9.61646
▁occupees	-9.62439
▁jeu	-9.62452
▁grandes	-9.6256
▁tard	-9.62653
▁roman	-9.63954
▁teachers	-9.64004
▁nos	-9.65018
f	-9.67631
▁direct	-9.68209
▁parti	-9.70416
▁endormi	-9.71797
▁effraye	-9.71797
▁cense	-9.71808
▁prudent	-9.71809
▁paris	-9.71886
▁ennuie	-9.71992
▁reason	-9.72005
▁astucieuse	-9.72013
▁habile	-9.72013
▁sceptique	-9.72013
▁conge	-9.72019
▁fiable	-9.7202
▁talentueuse	-9.72021
▁faible	-9.72022
▁eleve	-9.72023
▁devoir	-9.72033
▁player	-9.72042
▁vis	-9.72172
▁hors	-9.7225
▁aucun	-9.72253
▁excellent	-9.72255
▁play	-9.7234
▁essaye	-9.72357
▁fool	-9.72365
▁water	-9.72366
▁fight	-9.72368
▁even	-9.72368
▁eat	-9.72372
▁buy	-9.72374
▁fish	-9.72376
▁prison	-9.72382
▁pain	-9.72387
▁addict	-9.72393
▁oublie	-9.72406
▁asleep	-9.72412
▁astucieux	-9.72412
▁avocat	-9.72412
▁bientot	-9.72412
▁bright	-9.72412
▁charming	-9.72412
▁deviens	-9.72412
▁disponible	-9.72412
▁envers	-9.72412
▁extremement	-9.72412
▁fault	-9.72412
▁finicky	-9.72412
▁gens	-9.72412
▁german	-9.72412
▁lawyer	-9.72412
▁loaded	-9.72412
▁naif	-9.72412
▁opera	-9.72412
▁piano	-9.72412
▁preaching	-9.72412
▁rational	-9.72412
▁reliable	-9.72412
▁semblables	-9.72412
▁skeptical	-9.72412
▁trente	-9.72412
▁unambitious	-9.72412
▁unhappy	-9.72412
▁veritable	-9.72412
▁yelled	-9.72412
▁awake	-9.72412
▁pieds	-9.72412
▁souleve	-9.72412
▁world	-9.72412
▁football	-9.72412
▁habitude	-9.72412
▁allergic	-9.72412
▁hotel	-9.72412
▁moins	-9.72413
▁choir	-9.72413
▁paying	-9.72414
▁overworked	-9.72414
▁poisson	-9.72414
▁beauty	-9.72414
▁five	-9.72414
▁appelle	-9.72415
▁tallest	-9.72415
▁direction	-9.72416
▁minded	-9.72416
▁entirely	-9.72417
▁couple	-9.72418
▁discuter	-9.72418
▁fumer	-9.72418
▁proteger	-9.72418
▁excited	-9.72418
▁rendre	-9.72419
▁arbre	-9.72421
▁food	-9.72422
▁divorced	-9.72424
▁battre	-9.72425
▁trusting	-9.72428
▁turning	-9.72428
▁disputer	-9.72434
▁take	-9.72445
▁chosen	-9.72446
▁france	-9.7245
▁chanter	-9.72462
▁walking	-9.72462
▁certainement	-9.72464
▁month	-9.72465
▁interessee	-9.72467
▁drinking	-9.72468
▁amuse	-9.72474
▁chanteur	-9.7248
▁cherchent	-9.72488
▁huit	-9.72511
▁proches	-9.72514
▁try	-9.72532
▁etudier	-9.72534
▁many	-9.72551
▁partons	-9.72589
▁words	-9.72603
▁tant	-9.72633
▁etudiante	-9.7264
▁soon	-9.72672
▁heros	-9.73009
▁invites	-9.73053
▁erreurs	-9.73094
▁tree	-9.73163
▁responsables	-9.73242
▁ill	-9.73462
▁satisfaits	-9.73492
▁connue	-9.74831
▁contents	-9.75602
▁air	-9.75642
▁fatigues	-9.7637
▁sais	-9.76539
▁faut	-9.78399
ux	-9.7882
▁cou	-9.79629
▁slow	-9.79933
▁surs	-9.80208
is	-9.80971
▁deprime	-9.82191
▁sures	-9.82635
▁songe	-9.83065
▁journalist	-9.83201
▁mois	-9.83558
▁accro	-9.83789
▁offense	-9.83891
▁implique	-9.85233
▁ennemi	-9.853
▁attirant	-9.85302
▁marrant	-9.85308
▁bourre	-9.85308
▁depourvu	-9.85311
▁gagne	-9.85434
▁folle	-9.85509
▁flexible	-9.85516
▁perplexe	-9.85516
▁chanceuse	-9.8552
▁parole	-9.85523
▁dingue	-9.85528
▁down	-9.85532
▁grossiere	-9.85656
▁reste	-9.85739
▁hat	-9.85749
▁strict	-9.85753
▁preoccupe	-9.85755
▁lache	-9.85756
▁enchante	-9.85757
▁heroin	-9.8576
▁control	-9.85767
▁assis	-9.85808
▁feel	-9.85871
▁marche	-9.85878
▁environ	-9.85896
▁health	-9.85898
▁high	-9.85901
▁exam	-9.8591
▁craint	-9.85912
▁also	-9.85915
▁among	-9.85915
▁because	-9.85915
▁before	-9.85915
▁bout	-9.85915
▁complaints	-9.85915
▁conscientious	-9.85915
▁dancing	-9.85915
▁debt	-9.85915
▁devenir	-9.85915
▁dormir	-9.85915
▁easily	-9.85915
▁fashionable	-9.85915
▁forgiven	-9.85915
▁gorgeous	-9.85915
▁holiday	-9.85915
▁insane	-9.85915
▁jaloux	-9.85915
▁merveilleuse	-9.85915
▁moving	-9.85915
▁musician	-9.85915
▁novel	-9.85915
▁paranoiaque	-9.85915
▁paranoid	-9.85915
▁petrin	-9.85915
▁regime	-9.85915
▁religious	-9.85915
▁ruthless	-9.85915
▁sauf	-9.85915
▁serpents	-9.85915
▁shoes	-9.85915
▁snakes	-9.85915
▁sometimes	-9.85915
▁subject	-9.85915
▁suivre	-9.85915
▁surrounded	-9.85915
▁tidy	-9.85915
▁ugly	-9.85915
▁veulent	-9.85915
▁hook	-9.85915
▁independant	-9.85915
▁pays	-9.85915
▁chapeau	-9.85915
▁institutrice	-9.85915
▁authority	-9.85915
▁allergique	-9.85916
▁give	-9.85916
▁letting	-9.85916
▁prof	-9.85917
▁anywhere	-9.85917
▁wealthy	-9.85917
▁fussy	-9.85917
▁shower	-9.85919
▁arguing	-9.85921
▁washing	-9.85921
▁stalling	-9.85921
▁salle	-9.85921
▁facile	-9.85922
▁retourne	-9.85923
▁eau	-9.85926
▁annee	-9.8593
▁parked	-9.85931
▁quiet	-9.85931
▁blinded	-9.85933
▁maitre	-9.85933
▁breaking	-9.85934
▁appeler	-9.85938
▁prepared	-9.85938
▁wanted	-9.85944
▁sleep	-9.85946
▁following	-9.85947
▁headed	-9.85948
▁lunch	-9.85949
▁cause	-9.8595
▁enseignante	-9.85952
▁finding	-9.85953
▁sleeping	-9.8596
▁membre	-9.85964
▁mentir	-9.85966
▁traveling	-9.85979
▁parlent	-9.85987
▁cooking	-9.85992
▁preparer	-9.85993
▁dois	-9.85997
▁quelle	-9.85998
▁derangee	-9.86001
▁loved	-9.8601
▁certainly	-9.86019
▁shorter	-9.8603
▁closer	-9.86055
▁calling	-9.86056
▁hate	-9.86059
▁confrontes	-9.86078
▁prisoners	-9.86078
▁deranger	-9.8608
▁quel	-9.8608
▁depend	-9.86086
▁peut	-9.86098
▁friendly	-9.86108
▁difficultes	-9.86173
▁commencer	-9.86181
▁dingues	-9.86303
▁vraie	-9.86323
▁courses	-9.86438
ne	-9.8645
▁invitees	-9.86519
▁etudiantes	-9.86606
▁fac	-9.86634
▁passe	-9.86644
▁progress	-9.8672
▁chante	-9.86889
▁morts	-9.87211
▁epuisee	-9.87706
▁venue	-9.87724
▁idiots	-9.87955
▁offensee	-9.8798
▁douche	-9.88167
▁notres	-9.88389
▁heureuses	-9.88524
▁cache	-9.88645
▁quitte	-9.89498
ting	-9.89594
▁smoke	-9.89626
▁japonaise	-9.897
▁musicien	-9.89853
en	-9.91404
▁normale	-9.92692
▁vieilles	-9.93447
▁ba	-9.93996
▁connais	-9.94493
i	-9.94643
al	-9.9524
▁coup	-9.95566
▁was	-9.96704
ous	-9.9704
▁aveugle	-9.97105
▁gare	-9.97108
▁laisse	-9.97414
▁dispose	-9.97688
▁confiant	-9.97723
▁extraverti	-9.98141
▁venu	-9.99063
▁poet	-9.99181
▁epuise	-9.99476
▁progres	-10.006
▁gras	-10.0088
▁embarrasse	-10.009
▁puissant	-10.0092
▁grossier	-10.0093
▁reconnaissant	-10.0108
▁cousin	-10.0108
▁plaisante	-10.0111
▁jalouse	-10.0112
▁incroyable	-10.0112
▁maigrichon	-10.0112
▁apprend	-10.0113
▁histoire	-10.0113
▁responsabilite	-10.0113
▁solitaire	-10.0113
▁maigrichonne	-10.0114
▁examen	-10.0114
▁suggestion	-10.0114
▁courageuse	-10.0114
▁experience	-10.0114
▁autre	-10.0115
▁coupable	-10.0115
▁jour	-10.0115
▁vol	-10.0118
▁habillee	-10.0119
▁interessante	-10.0121
▁nom	-10.0121
▁name	-10.0124
▁bienvenue	-10.0128
▁depourvue	-10.0132
▁marrante	-10.0132
▁tel	-10.0133
▁present	-10.0134
▁blind	-10.0134
▁censee	-10.0135
▁cuisinier	-10.0137
▁elu	-10.0137
▁divorce	-10.0139
▁decue	-10.0139
▁ski	-10.0145
▁teach	-10.0147
▁study	-10.0149
▁find	-10.0149
▁nouvel	-10.0152
▁matin	-10.0152
▁fresh	-10.0153
▁japon	-10.0153
▁self	-10.0153
▁accident	-10.0153
▁another	-10.0153
▁auparavant	-10.0153
▁bank	-10.0153
▁beginner	-10.0153
▁bibliotheque	-10.0153
▁black	-10.0153
▁blanc	-10.0153
▁boulot	-10.0153
▁bruised	-10.0153
▁budget	-10.0153
▁cheerful	-10.0153
▁chinois	-10.0153
▁citizen	-10.0153
▁company	-10.0153
▁comprends	-10.0153
▁concert	-10.0153
▁davantage	-10.0153
▁definitely	-10.0153
▁dehors	-10.0153
▁diner	-10.0153
▁disgusting	-10.0153
▁disloyal	-10.0153
▁ecris	-10.0153
▁efficient	-10.0153
▁espoir	-10.0153
▁fascinating	-10.0153
▁feller	-10.0153
▁few	-10.0153
▁gonna	-10.0153
▁grumpy	-10.0153
▁handsome	-10.0153
▁insensitive	-10.0153
▁interieur	-10.0153
▁jazz	-10.0153
▁jusqu	-10.0153
▁library	-10.0153
▁loss	-10.0153
▁moitie	-10.0153
▁morning	-10.0153
▁ordinaire	-10.0153
▁outgoing	-10.0153
▁overreacting	-10.0153
▁paresseuse	-10.0153
▁punctual	-10.0153
▁radio	-10.0153
▁reponse	-10.0153
▁responsibility	-10.0153
▁scientifique	-10.0153
▁scientist	-10.0153
▁shape	-10.0153
▁starved	-10.0153
▁temperamental	-10.0153
▁traitor	-10.0153
▁true	-10.0153
▁trustworthy	-10.0153
▁undressing	-10.0153
▁vif	-10.0153
▁vive	-10.0153
▁wife	-10.0153
▁york	-10.0153
▁chaussures	-10.0153
▁conceited	-10.0153
▁devez	-10.0153
▁left	-10.0153
▁schedule	-10.0153
▁chess	-10.0153
▁video	-10.0153
▁commettre	-10.0153
▁expensive	-10.0153
▁powerless	-10.0153
▁boat	-10.0153
▁condition	-10.0153
▁genereux	-10.0153
▁copine	-10.0153
▁chair	-10.0153
▁jerk	-10.0153
▁croire	-10.0153
▁putting	-10.0153
▁swimmer	-10.0153
▁difficulties	-10.0153
▁white	-10.0153
▁chinese	-10.0153
▁totalement	-10.0153
▁extroverted	-10.0153
▁finalement	-10.0153
▁talkative	-10.0153
▁polite	-10.0154
▁tense	-10.0154
▁terrified	-10.0154
▁childish	-10.0154
▁gobe	-10.0154
▁sentir	-10.0154
▁parfois	-10.0154
▁quick	-10.0154
▁believe	-10.0154
▁ecrire	-10.0154
▁either	-10.0154
▁half	-10.0154
▁painting	-10.0154
▁selling	-10.0154
▁saving	-10.0154
▁touched	-10.0155
▁park	-10.0155
▁helpful	-10.0155
▁viennent	-10.0155
▁mistaken	-10.0155
▁experienced	-10.0155
▁beaute	-10.0155
▁etait	-10.0155
▁faced	-10.0156
▁planted	-10.0156
▁terre	-10.0157
▁tight	-10.0158
▁yeux	-10.0158
▁decisions	-10.0159
▁trouvent	-10.0159
▁essayer	-10.016
▁lovely	-10.0162
▁cleaning	-10.0162
▁line	-10.0162
▁arriver	-10.0164
▁echecs	-10.0166
▁flics	-10.0166
▁vers	-10.0166
▁attendons	-10.0167
▁saying	-10.0167
▁meurs	-10.017
▁stronger	-10.0171
▁heroine	-10.0172
▁photos	-10.0172
▁pommes	-10.0172
▁sundays	-10.0172
▁apples	-10.0172
▁morte	-10.0176
▁cops	-10.0179
▁gene	-10.0181
▁using	-10.0183
▁sait	-10.0186
▁entrainee	-10.0187
▁cats	-10.0187
▁names	-10.0192
▁folles	-10.0198
▁mince	-10.0199
▁formee	-10.0201
▁differentes	-10.0206
▁set	-10.0207
▁con	-10.0209
▁mortes	-10.0213
▁aine	-10.0214
particulierement	-10.0222
▁surprises	-10.0226
▁others	-10.0231
▁satisfaites	-10.0239
▁aise	-10.0258
▁gentils	-10.0278
▁differents	-10.0298
▁guys	-10.0305
▁leurs	-10.0314
▁adulte	-10.0318
▁meilleurs	-10.0318
▁suspect	-10.0339
▁geniale	-10.0358
▁poete	-10.0394
▁fa	-10.0398
▁fatiguees	-10.0401
▁parties	-10.0402
▁memes	-10.048
▁americaine	-10.05
▁wet	-10.0532
▁desesperee	-10.0533
▁pa	-10.0565
▁bouc	-10.068
u	-10.0704
▁presse	-10.0831
c	-10.0836
x	-10.0956
▁garde	-10.1041
▁ones	-10.1293
or	-10.13
▁social	-10.1309
ation	-10.1315
▁retraite	-10.1358
▁libere	-10.1548
▁ruse	-10.1551
▁noir	-10.1553
▁sorti	-10.1635
▁ordonne	-10.1657
▁save	-10.1676
▁choque	-10.1722
▁genial	-10.1765
ai	-10.1794
▁lave	-10.1851
▁war	-10.1922
▁ment	-10.193
▁vivant	-10.1942
▁dernier	-10.1943
▁veinard	-10.1943
▁bienvenu	-10.1944
▁avise	-10.1946
▁ecoute	-10.1959
▁vienne	-10.1964
▁allemand	-10.1964
▁avide	-10.1964
▁canadian	-10.1964
▁comprehensif	-10.1964
▁emotive	-10.1964
▁genereuse	-10.1964
▁movie	-10.1965
▁picture	-10.1965
▁partner	-10.1965
▁ferme	-10.1966
▁neighbor	-10.1966
▁math	-10.1969
▁avisee	-10.198
▁difficult	-10.1983
▁embarrassee	-10.1983
▁total	-10.1987
▁fair	-10.1988
▁sacre	-10.1988
▁bleu	-10.1988
▁fiance	-10.1989
▁matinal	-10.1989
▁etonne	-10.1989
▁etrange	-10.1991
▁blessee	-10.1993
▁sale	-10.1997
ion	-10.1997
▁watch	-10.1998
▁enseigne	-10.1999
▁plaint	-10.1999
▁follow	-10.2
▁clean	-10.2
▁prude	-10.2002
▁profession	-10.2004
▁thin	-10.2004
▁correct	-10.2004
▁dance	-10.2004
▁vois	-10.2004
▁japan	-10.2004
▁absolument	-10.2004
▁aggressive	-10.2004
▁ambitieux	-10.2004
▁asian	-10.2004
▁attitude	-10.2004
▁attracted	-10.2004
▁autorite	-10.2004
▁banque	-10.2004
▁bigot	-10.2004
▁bizarre	-10.2004
▁bleeding	-10.2004
▁booze	-10.2004
▁celebre	-10.2004
▁cinema	-10.2004
▁compare	-10.2004
▁computer	-10.2004
▁constantly	-10.2004
▁courteous	-10.2004
▁dark	-10.2004
▁debout	-10.2004
▁dizzy	-10.2004
▁dollars	-10.2004
▁drug	-10.2004
▁dumb	-10.2004
▁easy	-10.2004
▁ecrit	-10.2004
▁embarrassing	-10.2004
▁emissaire	-10.2004
▁endroit	-10.2004
▁exactement	-10.2004
▁exterieur	-10.2004
▁extremely	-10.2004
▁faveur	-10.2004
▁favor	-10.2004
▁fidele	-10.2004
▁filthy	-10.2004
▁gambler	-10.2004
▁gaspilles	-10.2004
▁gaspillez	-10.2004
▁genie	-10.2004
▁genius	-10.2004
▁gerant	-10.2004
▁growing	-10.2004
▁guerre	-10.2004
▁how	-10.2004
▁humble	-10.2004
▁hurle	-10.2004
▁hurry	-10.2004
▁incredible	-10.2004
▁independent	-10.2004
▁intimidated	-10.2004
▁italian	-10.2004
▁italien	-10.2004
▁jittery	-10.2004
▁knitting	-10.2004
▁languages	-10.2004
▁loyal	-10.2004
▁maigre	-10.2004
▁maladie	-10.2004
▁mannequin	-10.2004
▁merci	-10.2004
▁millionnaire	-10.2004
▁moindre	-10.2004
▁monsieur	-10.2004
▁mots	-10.2004
▁nettoie	-10.2004
▁novelist	-10.2004
▁obnoxious	-10.2004
▁opportunistic	-10.2004
▁ordinary	-10.2004
▁ordinateur	-10.2004
▁pathetic	-10.2004
▁phone	-10.2004
▁practice	-10.2004
▁prejuges	-10.2004
▁preparing	-10.2004
▁professor	-10.2004
▁projet	-10.2004
▁proposition	-10.2004
▁remets	-10.2004
▁scapegoat	-10.2004
▁ship	-10.2004
▁similar	-10.2004
▁sloshed	-10.2004
▁smiling	-10.2004
▁soccer	-10.2004
▁standing	-10.2004
▁suspicious	-10.2004
▁teenager	-10.2004
▁terms	-10.2004
▁truly	-10.2004
▁untalented	-10.2004
▁affame	-10.2004
▁christians	-10.2004
▁connaissance	-10.2004
▁member	-10.2004
▁montre	-10.2004
▁munitions	-10.2004
▁opportuniste	-10.2004
▁someone	-10.2004
▁weird	-10.2004
▁born	-10.2004
▁club	-10.2004
▁deaf	-10.2004
▁hier	-10.2004
▁faithful	-10.2004
▁impatience	-10.2004
▁accoutume	-10.2004
▁millionaire	-10.2004
▁raking	-10.2004
▁rire	-10.2004
▁chaise	-10.2004
▁match	-10.2004
▁enfin	-10.2004
▁cooperating	-10.2004
▁reellement	-10.2004
▁envie	-10.2004
▁station	-10.2004
▁biere	-10.2004
▁greatest	-10.2004
▁pire	-10.2004
▁particularly	-10.2005
▁picky	-10.2005
▁correctement	-10.2005
▁peintre	-10.2005
▁ever	-10.2005
▁plait	-10.2005
▁competent	-10.2005
▁demented	-10.2005
▁tourne	-10.2005
▁dependent	-10.2005
▁nerveusement	-10.2005
▁connaitre	-10.2005
▁docteur	-10.2005
▁youngest	-10.2005
▁amazing	-10.2005
▁painter	-10.2005
▁mentez	-10.2005
▁fairly	-10.2006
▁populaire	-10.2006
▁replaceable	-10.2006
▁arreter	-10.2006
▁rendons	-10.2007
▁hope	-10.2007
▁keeping	-10.2007
▁perfectly	-10.2007
▁apologize	-10.2007
▁blonde	-10.2007
▁obstinee	-10.2007
▁tombe	-10.2007
▁oncle	-10.2008
▁debutant	-10.2008
▁bossy	-10.2009
▁dangerous	-10.201
▁skiing	-10.201
▁dancer	-10.201
▁enseigner	-10.201
▁plaintes	-10.201
▁speaker	-10.201
▁closet	-10.2011
▁light	-10.2011
▁terriblement	-10.2011
▁dreaming	-10.2011
▁fighting	-10.2012
▁langues	-10.2012
▁sors	-10.2012
▁city	-10.2012
▁vient	-10.2012
▁could	-10.2012
▁dit	-10.2012
▁travailleur	-10.2013
▁gas	-10.2014
▁uncle	-10.2015
▁donner	-10.2016
▁once	-10.2016
▁groupe	-10.2017
▁dating	-10.202
▁adorer	-10.2023
▁elue	-10.2023
▁perds	-10.2025
▁controle	-10.2026
▁dependant	-10.2027
▁partenaires	-10.2027
▁voisins	-10.2027
▁ainee	-10.2028
▁mienne	-10.2028
▁cat	-10.2035
▁alike	-10.2036
▁differente	-10.2036
▁marier	-10.2039
▁consciente	-10.2043
▁partners	-10.2043
▁meilleure	-10.2045
▁heures	-10.2047
▁noms	-10.2051
▁incroyables	-10.2051
▁patiente	-10.2062
▁observe	-10.2063
▁faibles	-10.2066
▁eleves	-10.2067
▁beer	-10.2073
▁kids	-10.2075
▁forty	-10.2075
▁plans	-10.2075
▁miens	-10.2079
▁propres	-10.2091
ard	-10.2092
▁convaincues	-10.2093
▁understands	-10.2099
▁chances	-10.2116
▁use	-10.2117
▁penses	-10.2126
▁inquiets	-10.2127
▁convaincus	-10.2131
▁mauvaises	-10.2132
▁these	-10.2141
▁aides	-10.2209
▁mariees	-10.2209
de	-10.2265
▁choquee	-10.2295
▁end	-10.23
▁contentes	-10.2303
ent	-10.2335
▁bath	-10.2338
▁tour	-10.2362
▁journaliste	-10.2399
▁jeux	-10.2459
▁filles	-10.2484
▁long	-10.2638
▁maline	-10.2676
▁ex	-10.2696
ch	-10.2747
tons	-10.2815
▁bas	-10.2825
an	-10.3017
▁garden	-10.3386
ry	-10.348
▁attire	-10.3506
euses	-10.3509
▁sidere	-10.3592
▁forts	-10.3593
▁taille	-10.3655
▁touche	-10.3662
▁lie	-10.3675
▁co	-10.3685
▁ruine	-10.3723
▁brillant	-10.3807
▁branche	-10.3807
▁surmene	-10.3808
▁embetant	-10.3922
▁charmant	-10.3922
▁partira	-10.3924
ant	-10.3958
p	-10.401
▁adult	-10.4034
▁lent	-10.4079
▁join	-10.4086
▁tra	-10.4095
m	-10.4111
▁ten	-10.4185
ement	-10.4195
oire	-10.4213
▁engage	-10.4214
▁effronte	-10.4216
▁raffine	-10.4216
▁paye	-10.4216
▁sauve	-10.4233
▁order	-10.4234
▁trompe	-10.4236
▁relation	-10.4236
▁loi	-10.4237
▁serieuse	-10.4237
▁camarade	-10.4238
▁comprehensive	-10.4238
▁consciencieuse	-10.4238
▁efficace	-10.4238
▁ingenieuse	-10.4238
▁comporte	-10.4238
▁emotif	-10.4238
▁serviable	-10.4238
▁craintif	-10.4238
▁craintive	-10.4238
▁apparentee	-10.4239
▁eye	-10.4239
▁fruit	-10.4239
▁cop	-10.4239
▁maniere	-10.424
▁word	-10.424
▁year	-10.4242
▁pu	-10.4246
▁grosse	-10.4246
▁effrontee	-10.4254
▁raffinee	-10.4254
il	-10.4255
▁sournois	-10.4256
mment	-10.4257
▁veinarde	-10.4258
▁jardin	-10.4258
▁difficulte	-10.4259
▁confus	-10.426
▁sold	-10.4261
▁ponctuel	-10.4261
▁haut	-10.4261
▁intimide	-10.4262
▁arme	-10.4262
▁loup	-10.4262
▁chaud	-10.4262
▁faineant	-10.4262
▁apt	-10.4262
▁group	-10.4262
▁violent	-10.4262
▁puissante	-10.4262
▁coin	-10.4264
▁rationnel	-10.4265
▁canadien	-10.4265
▁ennemie	-10.4266
▁doue	-10.4266
man	-10.4267
▁ha	-10.4268
▁tatillon	-10.4268
▁effrayee	-10.427
▁endormie	-10.427
▁prudente	-10.427
▁persuade	-10.4271
▁start	-10.4271
▁parc	-10.4272
▁change	-10.4272
▁strange	-10.4273
▁fix	-10.4273
▁pratique	-10.4276
▁please	-10.4276
▁regret	-10.4277
▁america	-10.4277
▁pro	-10.4277
▁host	-10.4277
▁professionnel	-10.4277
▁critic	-10.4277
▁citoyen	-10.4277
▁doyen	-10.4277
▁hit	-10.4277
▁public	-10.4277
▁vieil	-10.4278
▁author	-10.4278
▁flatte	-10.4278
▁reconnais	-10.4278
▁agreement	-10.4278
▁ammo	-10.4278
▁amusing	-10.4278
▁animaux	-10.4278
▁apparentes	-10.4278
▁approchons	-10.4278
▁assertive	-10.4278
▁assuming	-10.4278
▁astonished	-10.4278
▁avenir	-10.4278
▁banc	-10.4278
▁biased	-10.4278
▁blocking	-10.4278
▁blue	-10.4278
▁boring	-10.4278
▁bread	-10.4278
▁capitaine	-10.4278
▁captain	-10.4278
▁chauve	-10.4278
▁chicago	-10.4278
▁coffee	-10.4278
▁consciencieux	-10.4278
▁considering	-10.4278
▁couramment	-10.4278
▁creatif	-10.4278
▁criticism	-10.4278
▁cuire	-10.4278
▁defauts	-10.4278
▁depuis	-10.4278
▁devastated	-10.4278
▁devient	-10.4278
▁disgusted	-10.4278
▁dj	-10.4278
▁drogue	-10.4278
▁eighteen	-10.4278
▁emoulu	-10.4278
▁emplettes	-10.4278
▁europe	-10.4278
▁fascinated	-10.4278
▁field	-10.4278
▁flirt	-10.4278
▁frais	-10.4278
▁furieux	-10.4278
▁future	-10.4278
▁golf	-10.4278
▁gonzesse	-10.4278
▁grandfather	-10.4278
▁harvard	-10.4278
▁herself	-10.4278
▁immediatement	-10.4278
▁impitoyable	-10.4278
▁individu	-10.4278
▁influence	-10.4278
▁ingenieux	-10.4278
▁inside	-10.4278
▁intrepide	-10.4278
▁jolly	-10.4278
▁kyoto	-10.4278
▁loque	-10.4278
▁low	-10.4278
▁lundi	-10.4278
▁machine	-10.4278
▁merveilleux	-10.4278
▁montagne	-10.4278
▁most	-10.4278
▁motive	-10.4278
▁mountain	-10.4278
▁natation	-10.4278
▁naughty	-10.4278
▁noble	-10.4278
▁observatrice	-10.4278
▁outside	-10.4278
▁pathetique	-10.4278
▁penetrer	-10.4278
▁photogenic	-10.4278
▁photogenique	-10.4278
▁piscine	-10.4278
▁pizza	-10.4278
▁plage	-10.4278
▁planning	-10.4278
▁pool	-10.4278
▁preches	-10.4278
▁prechez	-10.4278
▁pregnant	-10.4278
▁prenons	-10.4278
▁prestation	-10.4278
▁productif	-10.4278
▁promoted	-10.4278
▁proprietaires	-10.4278
▁quand	-10.4278
▁quasiment	-10.4278
▁reflechir	-10.4278
▁repeter	-10.4278
▁repondre	-10.4278
▁representation	-10.4278
▁rigole	-10.4278
▁runner	-10.4278
▁sandwich	-10.4278
▁second	-10.4278
▁shaken	-10.4278
▁snob	-10.4278
▁starving	-10.4278
▁stock	-10.4278
▁stuffed	-10.4278
▁stunned	-10.4278
▁thief	-10.4278
▁thorough	-10.4278
▁toubib	-10.4278
▁trapped	-10.4278
▁underwear	-10.4278
▁uninsured	-10.4278
▁unlucky	-10.4278
▁unmarried	-10.4278
▁vegetarian	-10.4278
▁viendra	-10.4278
▁voix	-10.4278
▁women	-10.4278
▁anyone	-10.4278
▁echoue	-10.4278
▁romancier	-10.4278
▁teeth	-10.4278
▁trousses	-10.4278
▁abroad	-10.4278
▁arranger	-10.4278
▁attentive	-10.4278
▁domaine	-10.4278
▁lunatique	-10.4278
▁magnifique	-10.4278
▁observateur	-10.4278
▁said	-10.4278
▁tranquille	-10.4278
▁cafe	-10.4278
▁chambre	-10.4278
▁client	-10.4278
▁inutiles	-10.4278
▁peace	-10.4278
▁grounded	-10.4278
▁grown	-10.4278
▁comfortable	-10.4278
▁fearless	-10.4278
▁owners	-10.4278
▁amerique	-10.4278
▁maid	-10.4278
▁feet	-10.4278
▁flattered	-10.4278
▁joyeux	-10.4278
▁tenace	-10.4278
▁bench	-10.4278
▁ombre	-10.4278
▁interruption	-10.4278
▁invitation	-10.4278
▁arrest	-10.4278
▁fluent	-10.4278
▁forgetting	-10.4278
▁green	-10.4278
▁assistant	-10.4278
▁downstairs	-10.4278
▁soul	-10.4278
▁illness	-10.4278
▁degoute	-10.4278
▁commette	-10.4278
▁conducteur	-10.4278
▁farmer	-10.4278
▁maitresse	-10.4278
▁nombreux	-10.4278
▁merde	-10.4278
▁hopeless	-10.4278
▁nearly	-10.4278
▁usually	-10.4278
▁choc	-10.4278
▁route	-10.4278
▁anybody	-10.4278
▁determined	-10.4278
▁dors	-10.4278
▁bois	-10.4278
▁story	-10.4278
▁pot	-10.4278
▁blackmailed	-10.4278
▁relaxed	-10.4278
▁doyenne	-10.4278
▁crie	-10.4278
▁sincere	-10.4279
▁professional	-10.4279
▁successful	-10.4279
▁sweater	-10.4279
▁gaz	-10.4279
▁mentent	-10.4279
▁didn	-10.4279
▁imagining	-10.4279
▁useless	-10.4279
▁donnerai	-10.4279
▁volunteering	-10.4279
▁paie	-10.4279
▁simple	-10.4279
▁absorbed	-10.4279
▁carrying	-10.4279
▁rentrer	-10.4279
▁pension	-10.4279
▁did	-10.4279
▁ennuyer	-10.4279
▁foreigner	-10.4279
▁faux	-10.4279
▁patronne	-10.4279
▁conduct	-10.4279
▁had	-10.428
▁respected	-10.428
▁sociable	-10.428
▁roll	-10.428
▁evil	-10.428
▁beach	-10.428
▁concerne	-10.428
▁pulling	-10.428
▁customer	-10.428
▁watched	-10.428
▁piece	-10.428
▁perdons	-10.428
▁ruined	-10.4281
▁healthy	-10.4281
▁nouveaux	-10.4281
▁dents	-10.4281
▁fachee	-10.4282
▁societe	-10.4282
▁argue	-10.4282
▁dangereux	-10.4282
▁model	-10.4282
▁exprimer	-10.4282
▁regretter	-10.4282
▁fixing	-10.4282
▁dieting	-10.4284
▁missed	-10.4284
▁presenter	-10.4285
▁adorent	-10.4285
▁door	-10.4285
▁bel	-10.4285
▁seriously	-10.4285
▁rendez	-10.4285
▁precise	-10.4286
▁calme	-10.4286
▁economise	-10.4286
▁cup	-10.4287
▁asiatiques	-10.4287
▁questions	-10.4287
▁suite	-10.4287
▁tatillonne	-10.4288
▁impliquer	-10.4288
▁lady	-10.4288
▁law	-10.4288
▁pensez	-10.4288
▁tasse	-10.429
▁ask	-10.4291
▁rationnelle	-10.4291
▁rale	-10.4292
▁aidez	-10.4295
▁casse	-10.4295
▁tache	-10.4297
▁vetements	-10.4297
▁matinale	-10.4298
▁crying	-10.4299
▁cuisiniere	-10.4302
▁hurting	-10.4302
▁penser	-10.4303
▁introverti	-10.4305
▁enchantee	-10.4306
▁assise	-10.4306
▁meeting	-10.4307
▁fetes	-10.4307
▁keys	-10.4307
▁prisonniers	-10.4307
▁bus	-10.4307
▁commere	-10.4309
▁aucune	-10.431
▁east	-10.4312
▁mens	-10.4313
▁case	-10.4316
▁manieres	-10.4317
▁serieuses	-10.4317
▁grosses	-10.4319
▁contented	-10.4321
▁porter	-10.4327
▁neighbors	-10.4327
▁pictures	-10.4327
▁miennes	-10.4327
▁derniers	-10.4327
▁lis	-10.4327
▁auteur	-10.4328
▁cles	-10.4333
▁realite	-10.4334
▁resigning	-10.4335
▁courageuses	-10.4337
▁cousins	-10.4337
▁sainte	-10.4343
▁laches	-10.4347
▁bourres	-10.4347
▁depourvus	-10.4347
▁fondu	-10.4347
▁might	-10.435
▁affairee	-10.4355
▁amoureuse	-10.4357
▁talentueuses	-10.4357
▁censes	-10.4357
▁cowards	-10.4367
▁devouee	-10.437
▁ira	-10.437
▁derangees	-10.4377
▁sages	-10.4377
▁elegants	-10.4378
▁regardes	-10.4388
▁elegantes	-10.4392
▁mineure	-10.4397
▁francaise	-10.44
▁mets	-10.4403
▁celibataires	-10.4418
▁books	-10.4438
▁care	-10.4471
▁medecins	-10.4489
▁gentilles	-10.4499
▁deranges	-10.4504
▁irai	-10.4512
▁intelligentes	-10.4515
▁types	-10.452
▁met	-10.4525
aux	-10.4539
▁coincee	-10.4558
▁bruyante	-10.4559
▁force	-10.4567
▁doctors	-10.4571
▁poli	-10.462
▁portes	-10.4634
▁charmante	-10.4647
▁embetante	-10.4647
ir	-10.4649
▁fortes	-10.4665
▁fiers	-10.4666
▁girls	-10.4696
▁fri	-10.4716
▁ordonnee	-10.4732
▁intelligents	-10.475
▁extravertie	-10.4813
▁confiante	-10.4815
he	-10.4886
▁deprimee	-10.4892
▁went	-10.4894
▁men	-10.4927
▁mechante	-10.5034
▁o	-10.5049
▁visite	-10.5209
at	-10.5241
tent	-10.5248
▁etrangere	-10.5357
▁desoles	-10.5407
▁cas	-10.5429
▁rate	-10.5439
▁sing	-10.562
▁g	-10.5652
ves	-10.577
eux	-10.5783
eur	-10.5798
▁deshabille	-10.5863
▁rat	-10.5945
▁faute	-10.5958
k	-10.6013
▁visit	-10.6158
▁or	-10.6222
ure	-10.6354
▁tienne	-10.6412
▁eveille	-10.6472
▁president	-10.6499
ais	-10.6591
▁excite	-10.6693
ng	-10.671
▁contusionne	-10.6739
▁indelicat	-10.6739
▁degoutant	-10.6739
▁bavard	-10.6739
▁pueril	-10.6739
▁imprudent	-10.6739
▁amusant	-10.6739
▁fascinant	-10.6739
▁givre	-10.674
▁suffisant	-10.6744
▁pardonne	-10.6745
sons	-10.6747
▁tendu	-10.6748
ies	-10.6857
▁bear	-10.6858
▁bruyant	-10.686
▁coince	-10.6879
▁cle	-10.6908
▁hospital	-10.6947
ary	-10.6963
ce	-10.6985
urs	-10.7002
▁com	-10.7009
▁song	-10.7026
th	-10.7049
▁rend	-10.7051
ic	-10.7084
ive	-10.7099
ster	-10.7116
▁bar	-10.7122
▁cho	-10.713
▁prend	-10.7143
use	-10.7152
▁tourist	-10.7164
▁endurant	-10.7164
▁embrouille	-10.7169
▁cor	-10.717
▁voisin	-10.717
▁prisonnier	-10.7181
▁traitre	-10.7183
▁excuse	-10.7184
▁confronte	-10.7185
▁ambitieuse	-10.7185
▁chanson	-10.7185
▁possibilite	-10.7185
▁hand	-10.7186
▁classmate	-10.7186
▁science	-10.7186
▁vulnerable	-10.7186
▁australian	-10.7186
▁key	-10.7186
▁partenaire	-10.7186
▁photo	-10.7186
▁pomme	-10.7187
▁sunday	-10.7187
▁fete	-10.7187
▁apple	-10.7187
▁doute	-10.7188
▁reussira	-10.7189
▁leg	-10.7195
▁prisoner	-10.7195
▁endurante	-10.7201
▁touriste	-10.7201
▁interessant	-10.7204
▁accept	-10.7205
▁sournoise	-10.7207
▁armee	-10.7207
▁adolescent	-10.7209
▁distrait	-10.7209
▁vanne	-10.7209
▁vilain	-10.7209
▁laid	-10.7209
▁voyant	-10.7209
▁vit	-10.721
▁pet	-10.721
▁auto	-10.7211
▁fric	-10.7212
▁diet	-10.7216
gging	-10.7217
▁trust	-10.7219
▁abandonne	-10.722
▁blague	-10.722
▁exprime	-10.722
▁photographe	-10.722
▁achete	-10.722
▁repare	-10.722
▁answer	-10.7221
▁keep	-10.7221
▁break	-10.7221
▁regrette	-10.7221
▁tente	-10.7221
▁app	-10.7222
▁appel	-10.7222
▁custom	-10.7222
▁attack	-10.7223
▁shock	-10.7223
▁intrigue	-10.7224
▁absorbe	-10.7224
▁entire	-10.7224
▁bourree	-10.7224
▁cours	-10.7225
▁thought	-10.7225
▁hung	-10.7225
▁wall	-10.7225
▁birth	-10.7225
▁ability	-10.7225
▁actor	-10.7225
▁agreed	-10.7225
▁agressive	-10.7225
▁ahead	-10.7225
▁alcoolique	-10.7225
▁assuetude	-10.7225
▁atmosphere	-10.7225
▁autoritaire	-10.7225
▁avion	-10.7225
▁between	-10.7225
▁blast	-10.7225
▁bras	-10.7225
▁brazil	-10.7225
▁breath	-10.7225
▁bresil	-10.7225
▁built	-10.7225
▁candidat	-10.7225
▁celebrating	-10.7225
▁cellphone	-10.7225
▁chacun	-10.7225
▁changing	-10.7225
▁cherchons	-10.7225
▁chicken	-10.7225
▁choix	-10.7225
▁chretiens	-10.7225
▁climb	-10.7225
▁committee	-10.7225
▁competitors	-10.7225
▁compliments	-10.7225
▁comptons	-10.7225
▁concentrer	-10.7225
▁considerate	-10.7225
▁continuer	-10.7225
▁courageous	-10.7225
▁courent	-10.7225
▁coureur	-10.7225
▁courir	-10.7225
▁cranky	-10.7225
▁creepy	-10.7225
▁cultive	-10.7225
▁decois	-10.7225
▁delusional	-10.7225
▁desoriente	-10.7225
▁devoted	-10.7225
▁discuss	-10.7225
▁dissatisfied	-10.7225
▁drawn	-10.7225
▁dreading	-10.7225
▁droit	-10.7225
▁ecoule	-10.7225
▁edges	-10.7225
▁embrasse	-10.7225
▁emeche	-10.7225
▁empoisonne	-10.7225
▁emporte	-10.7225
▁energie	-10.7225
▁energy	-10.7225
▁entitled	-10.7225
▁entreprise	-10.7225
▁eprouve	-10.7225
▁etasunien	-10.7225
▁figure	-10.7225
▁finlandais	-10.7225
▁finnish	-10.7225
▁fleurs	-10.7225
▁fourbu	-10.7225
▁freelance	-10.7225
▁frousse	-10.7225
▁gaspiller	-10.7225
▁gossip	-10.7225
▁habite	-10.7225
▁hardworking	-10.7225
▁himself	-10.7225
▁hired	-10.7225
▁history	-10.7225
▁hopital	-10.7225
▁hostile	-10.7225
▁housewife	-10.7225
▁humide	-10.7225
▁imbecile	-10.7225
▁indigne	-10.7225
▁infirmiere	-10.7225
▁inoubliable	-10.7225
▁international	-10.7225
▁kitchen	-10.7225
▁laugh	-10.7225
▁licencie	-10.7225
▁literature	-10.7225
▁litterature	-10.7225
▁lyceen	-10.7225
▁magazine	-10.7225
▁maladroit	-10.7225
▁malheureuse	-10.7225
▁malheureux	-10.7225
▁managing	-10.7225
▁mathematiques	-10.7225
▁mecontent	-10.7225
▁meurtre	-10.7225
▁misunderstood	-10.7225
▁motivated	-10.7225
▁mouise	-10.7225
▁move	-10.7225
▁murder	-10.7225
▁muslim	-10.7225
▁musulman	-10.7225
▁nettoyer	-10.7225
▁nombreuses	-10.7225
▁normaux	-10.7225
▁obviously	-10.7225
▁odieuse	-10.7225
▁okay	-10.7225
▁ordres	-10.7225
▁paix	-10.7225
▁parmi	-10.7225
▁peindre	-10.7225
▁perceptive	-10.7225
▁perspicace	-10.7225
▁perte	-10.7225
▁physical	-10.7225
▁physique	-10.7225
▁pioneer	-10.7225
▁pionnier	-10.7225
▁placard	-10.7225
▁plaisantons	-10.7225
▁plastered	-10.7225
▁pleuve	-10.7225
▁pooped	-10.7225
▁portable	-10.7225
▁portons	-10.7225
▁portrait	-10.7225
▁possibility	-10.7225
▁practically	-10.7225
▁precieux	-10.7225
▁predictable	-10.7225
▁prevenant	-10.7225
▁previsible	-10.7225
▁privee	-10.7225
▁psyched	-10.7225
▁raisonnable	-10.7225
▁rassasie	-10.7225
▁reflechis	-10.7225
▁religieux	-10.7225
▁remonte	-10.7225
▁resoudre	-10.7225
▁ressens	-10.7225
▁restless	-10.7225
▁retournons	-10.7225
▁river	-10.7225
▁riviere	-10.7225
▁romps	-10.7225
▁rouge	-10.7225
▁rough	-10.7225
▁rougis	-10.7225
▁savoir	-10.7225
▁semblant	-10.7225
▁semble	-10.7225
▁separe	-10.7225
▁shirt	-10.7225
▁shoot	-10.7225
▁sinistre	-10.7225
▁small	-10.7225
▁smashed	-10.7225
▁smoking	-10.7225
▁sourient	-10.7225
▁splendide	-10.7225
▁spoiling	-10.7225
▁stupefait	-10.7225
▁sucre	-10.7225
▁summer	-10.7225
▁survecu	-10.7225
▁sweetheart	-10.7225
▁sympathique	-10.7225
▁tantinet	-10.7225
▁temoins	-10.7225
▁terribly	-10.7225
▁those	-10.7225
▁thrilled	-10.7225
▁tipsy	-10.7225
▁trentaine	-10.7225
▁typical	-10.7225
▁unbelievably	-10.7225
▁unemployed	-10.7225
▁unforgettable	-10.7225
▁velo	-10.7225
▁vendeur	-10.7225
▁vends	-10.7225
▁veniez	-10.7225
▁vertige	-10.7225
▁vingt	-10.7225
▁volontaire	-10.7225
▁volonte	-10.7225
▁wide	-10.7225
▁witnesses	-10.7225
▁wondering	-10.7225
▁yesterday	-10.7225
▁applique	-10.7225
▁creuse	-10.7225
▁flowers	-10.7225
▁inconditionnel	-10.7225
▁nagging	-10.7225
▁termes	-10.7225
▁colleague	-10.7225
▁collegue	-10.7225
▁demi	-10.7225
▁epargne	-10.7225
▁jumelle	-10.7225
▁ouest	-10.7225
▁ourselves	-10.7225
▁possible	-10.7225
▁promene	-10.7225
▁redire	-10.7225
▁reviens	-10.7225
▁spy	-10.7225
▁tendance	-10.7225
▁above	-10.7225
▁allonge	-10.7225
▁laboratoire	-10.7225
▁rassemble	-10.7225
▁would	-10.7225
▁active	-10.7225
▁guests	-10.7225
▁voice	-10.7225
▁chaleur	-10.7225
▁image	-10.7225
▁plaindre	-10.7225
▁worst	-10.7225
▁rain	-10.7225
▁compris	-10.7225
▁lunettes	-10.7225
▁nageuse	-10.7225
▁bicycle	-10.7225
▁bol	-10.7225
▁closing	-10.7225
▁concentrating	-10.7225
▁debiteur	-10.7225
▁digging	-10.7225
▁nourriture	-10.7225
▁abuse	-10.7225
▁actress	-10.7225
▁gamin	-10.7225
▁mettez	-10.7225
▁reveille	-10.7225
▁constamment	-10.7225
▁soigneusement	-10.7225
▁nurse	-10.7225
▁film	-10.7225
▁country	-10.7225
▁desireuse	-10.7225
▁heels	-10.7225
▁journee	-10.7225
▁rouille	-10.7225
▁epoux	-10.7225
▁vegetarienne	-10.7225
▁salesman	-10.7225
▁hawaii	-10.7226
▁pitie	-10.7226
▁fantasque	-10.7226
▁fail	-10.7226
▁coreen	-10.7226
▁korean	-10.7226
▁triche	-10.7226
▁ouie	-10.7226
▁bain	-10.7226
▁crache	-10.7226
▁desireux	-10.7226
▁imagination	-10.7226
▁baking	-10.7226
▁clearly	-10.7226
▁run	-10.7226
▁neatly	-10.7226
▁chaque	-10.7226
▁nerd	-10.7226
▁charme	-10.7226
▁pause	-10.7226
▁ayons	-10.7226
▁tentons	-10.7226
▁outraged	-10.7226
▁worthy	-10.7226
▁alarmed	-10.7226
▁indeed	-10.7226
▁profondement	-10.7226
▁lisent	-10.7226
▁voleur	-10.7226
▁introverted	-10.7226
▁negligent	-10.7226
▁hitting	-10.7226
▁art	-10.7226
▁bald	-10.7226
▁hauteur	-10.7226
▁deeply	-10.7226
▁demissionner	-10.7226
▁considere	-10.7226
▁morons	-10.7226
▁careless	-10.7226
▁pretending	-10.7226
▁prettier	-10.7226
▁survived	-10.7227
▁latest	-10.7227
▁autour	-10.7227
▁collecting	-10.7227
▁scaring	-10.7227
▁businessman	-10.7227
▁killing	-10.7227
▁feeding	-10.7227
▁intrigued	-10.7227
▁restons	-10.7227
▁stressed	-10.7227
▁gaucher	-10.7227
▁look	-10.7227
▁trusted	-10.7227
▁turned	-10.7227
▁foies	-10.7227
▁senior	-10.7227
▁freezing	-10.7227
▁alite	-10.7227
▁hair	-10.7227
▁persuaded	-10.7228
▁bitter	-10.7228
▁foot	-10.7228
▁pratiquement	-10.7228
▁ennuyons	-10.7228
▁serieusement	-10.7228
▁dette	-10.7228
▁audition	-10.7228
▁turn	-10.7228
▁remplacable	-10.7228
▁blushing	-10.7228
▁conseil	-10.7228
▁highly	-10.7229
▁respecte	-10.7229
▁epouser	-10.7229
▁utiliser	-10.7229
▁rejouissons	-10.723
▁cloue	-10.723
▁rever	-10.723
▁pleurer	-10.723
▁accepter	-10.723
▁optimiste	-10.723
▁quarante	-10.723
▁seduisante	-10.723
▁vetue	-10.723
▁store	-10.723
▁plaisantez	-10.7231
▁abandonner	-10.7231
▁blaguer	-10.7231
▁photographer	-10.7231
▁reparer	-10.7231
▁prisonnieres	-10.7231
▁learned	-10.7231
▁nowhere	-10.7232
▁conte	-10.7232
▁chic	-10.7232
▁employed	-10.7232
▁gal	-10.7232
▁changer	-10.7233
▁payer	-10.7233
▁ni	-10.7233
▁etat	-10.7234
▁freak	-10.7234
▁lune	-10.7234
▁espionne	-10.7234
▁digne	-10.7234
▁dort	-10.7234
▁lever	-10.7235
▁regardez	-10.7235
▁closed	-10.7236
▁sauver	-10.7236
▁servante	-10.7236
▁sourde	-10.7236
▁tricote	-10.7236
▁vue	-10.7236
▁reussite	-10.7236
▁facing	-10.7236
▁died	-10.7236
▁danseur	-10.7236
▁heights	-10.7238
▁fooling	-10.7238
▁ears	-10.7238
▁courant	-10.7238
▁mondays	-10.7238
▁plains	-10.7238
▁prevois	-10.7238
▁agis	-10.7238
▁facts	-10.7238
▁sec	-10.7238
▁jam	-10.7238
▁thank	-10.7238
▁beaux	-10.7239
▁dote	-10.7239
▁jouent	-10.7239
▁whole	-10.7241
▁test	-10.7241
▁badly	-10.7242
▁cuisiner	-10.7242
▁tre	-10.7242
▁willed	-10.7242
▁canadienne	-10.7243
▁driver	-10.7244
▁ouverte	-10.7245
▁diete	-10.7246
▁party	-10.7246
▁chaude	-10.7247
▁faineante	-10.7247
▁payee	-10.7247
▁attiree	-10.7248
▁invente	-10.7248
▁ponctuelle	-10.7248
teur	-10.7249
▁stresse	-10.7251
▁animals	-10.7251
▁criminals	-10.7251
▁mathematics	-10.7251
▁twins	-10.7251
▁serres	-10.7251
▁fauches	-10.7251
▁apte	-10.7252
▁stop	-10.7252
▁etonnee	-10.7252
▁fiancee	-10.7252
▁bleue	-10.7252
▁chiant	-10.7252
▁dites	-10.7253
▁pensees	-10.7254
▁bande	-10.7255
▁west	-10.7255
▁compter	-10.7255
▁approche	-10.7258
▁demenage	-10.7258
▁fasting	-10.7258
▁employees	-10.7258
▁tiens	-10.726
▁amical	-10.7262
▁preoccupee	-10.7263
▁devant	-10.7264
▁regardent	-10.7264
▁classmates	-10.7265
▁hands	-10.7265
▁sciences	-10.7265
▁vulnerables	-10.7265
▁legs	-10.7265
▁reussiras	-10.7265
▁songs	-10.7266
▁offer	-10.7266
▁fly	-10.7267
▁demenager	-10.7268
▁heat	-10.7271
▁armees	-10.7272
▁cuter	-10.7277
▁bourrees	-10.7278
▁apparentees	-10.7278
▁eyes	-10.7278
▁fruits	-10.7278
▁trompes	-10.7278
▁orders	-10.7278
▁engages	-10.7278
▁autorisee	-10.728
▁voleuse	-10.7281
▁armes	-10.7282
▁meant	-10.7285
▁touches	-10.7286
▁acteur	-10.7288
▁maths	-10.7292
▁movies	-10.7292
▁bienvenus	-10.7292
▁fermes	-10.7296
▁cruelle	-10.7304
▁coupables	-10.7305
▁jalouses	-10.7305
▁plaisantes	-10.7305
▁reconnaissants	-10.7306
▁grossiers	-10.7306
▁suggestions	-10.7306
▁experiences	-10.7307
▁lover	-10.7307
ating	-10.7311
▁bienvenues	-10.7315
▁rejoindre	-10.7317
▁mouille	-10.7318
▁depourvues	-10.7319
▁marrantes	-10.7319
▁paroles	-10.7319
▁soucieuse	-10.7319
▁marrants	-10.7319
▁censees	-10.7321
less	-10.733
▁grossieres	-10.7331
▁mains	-10.7332
▁conges	-10.7333
▁fiables	-10.7333
▁ceux	-10.7334
▁impulsive	-10.7335
▁contenter	-10.7345
▁enseignantes	-10.7356
▁contraries	-10.736
▁warm	-10.7363
▁normales	-10.7365
ast	-10.7372
▁ouverts	-10.7374
▁contrariees	-10.7379
▁mien	-10.739
▁chemise	-10.7393
▁malins	-10.7394
▁decus	-10.7398
▁pauvres	-10.7401
▁menteuses	-10.7402
▁humanite	-10.7402
▁impressionnes	-10.7403
▁games	-10.7415
▁impressionnees	-10.7427
▁livres	-10.7429
▁droles	-10.7429
▁commande	-10.7439
▁idiotes	-10.7445
▁grass	-10.7448
▁talents	-10.7457
▁mignons	-10.7467
vent	-10.7469
▁celles	-10.7474
▁enseignants	-10.7485
▁ange	-10.7486
▁jeter	-10.7488
▁ho	-10.7498
▁certaines	-10.7505
▁timides	-10.7518
▁pleins	-10.7536
rre	-10.7537
▁menteurs	-10.754
▁interesses	-10.7541
▁assuree	-10.7546
▁reves	-10.7561
▁deloyale	-10.7569
▁cernee	-10.757
▁cra	-10.757
▁malades	-10.7596
▁gate	-10.76
▁fieres	-10.7617
▁femmes	-10.7653
▁ait	-10.7672
▁belles	-10.7687
▁impatients	-10.7703
▁suffisante	-10.7731
▁givree	-10.7735
▁pardonnee	-10.7736
▁amusante	-10.7736
▁fascinante	-10.7736
▁imprudente	-10.7736
▁bavarde	-10.7736
▁puerile	-10.7736
▁degoutante	-10.7736
▁indelicate	-10.7736
▁contusionnee	-10.7736
▁excitee	-10.7741
▁bu	-10.775
▁dispute	-10.776
▁cr	-10.7775
ze	-10.7781
▁jobs	-10.7782
▁ours	-10.7819
▁bee	-10.7841
▁polie	-10.7865
▁tendue	-10.7867
▁lente	-10.7878
▁surmenee	-10.7893
▁branchee	-10.7895
▁brillante	-10.7895
▁touchee	-10.7917
rai	-10.7929
▁certains	-10.7961
▁news	-10.7987
▁hommes	-10.8038
▁rusee	-10.8041
▁liberee	-10.8045
▁vent	-10.8068
▁peureuse	-10.8079
▁sortie	-10.8104
▁noire	-10.8143
ache	-10.817
▁disposee	-10.8177
▁aveuglee	-10.8188
▁garee	-10.819
tic	-10.8297
▁faits	-10.831
▁directe	-10.8452
▁promise	-10.8497
▁desolees	-10.8498
▁live	-10.8503
▁chi	-10.8508
▁viree	-10.8565
▁arrogante	-10.8569
▁ignorante	-10.8569
▁rencontree	-10.8573
ter	-10.8591
▁habille	-10.8599
▁tiree	-10.863
▁plantee	-10.8682
▁gr	-10.8799
▁shut	-10.8954
▁importante	-10.8985
▁travers	-10.9225
utter	-10.9259
sez	-10.9269
▁four	-10.9272
▁sh	-10.9282
▁perd	-10.9341
ique	-10.9346
ait	-10.942
▁soft	-10.9571
ally	-10.9589
l	-10.9611
cul	-10.962
che	-10.974
les	-10.9867
ted	-10.9892
▁reagis	-10.9914
▁may	-10.9956
sses	-10.9959
ces	-11.0164
▁actrice	-11.0177
iez	-11.0278
▁saigne	-11.0313
as	-11.0363
▁fe	-11.0382
▁voie	-11.0394
▁r	-11.0423
▁decide	-11.0504
llets	-11.0531
▁terrifie	-11.0578
▁cal	-11.0593
▁aneanti	-11.0639
▁remue	-11.0641
▁ju	-11.0641
▁tetu	-11.0653
▁gave	-11.0662
▁ro	-11.0672
▁lou	-11.0694
ives	-11.0705
et	-11.0711
▁revenu	-11.0718
ts	-11.0729
in	-11.0739
lor	-11.0769
ite	-11.0773
ier	-11.0785
dre	-11.082
▁cerne	-11.0878
▁deloyal	-11.0921
ien	-11.0947
▁detendu	-11.0986
▁soup	-11.1035
ise	-11.1073
▁ruin	-11.1081
if	-11.1111
▁tub	-11.1158
▁sea	-11.1163
bi	-11.118
nce	-11.1217
▁comm	-11.122
▁tea	-11.1227
▁fo	-11.1237
▁report	-11.1243
nge	-11.1244
per	-11.1247
▁plane	-11.125
cal	-11.1258
▁heart	-11.1262
▁sav	-11.1279
▁sou	-11.1291
▁gra	-11.1292
▁pend	-11.13
un	-11.1303
ante	-11.1324
▁assure	-11.1338
ouilles	-11.1342
ical	-11.1352
oyer	-11.1359
▁fauche	-11.136
▁sons	-11.1361
ucher	-11.1364
▁lov	-11.1364
apte	-11.1365
▁fl	-11.1366
line	-11.1366
rying	-11.1367
▁medi	-11.1368
▁appro	-11.137
▁dream	-11.1375
ate	-11.1376
▁nerveuse	-11.138
▁mind	-11.1381
▁sui	-11.1381
▁compatible	-11.1382
▁magasin	-11.1382
▁mensonge	-11.1382
▁religieuse	-11.1382
▁risk	-11.1382
▁risque	-11.1382
▁sport	-11.1382
▁criminal	-11.1383
▁mathematic	-11.1383
▁twin	-11.1383
▁animal	-11.1383
▁vetement	-11.1383
▁rose	-11.1383
▁echec	-11.1383
▁flic	-11.1384
▁apre	-11.1384
▁proche	-11.1384
▁dog	-11.1386
▁cookie	-11.1387
▁chat	-11.1389
it	-11.139
▁serre	-11.139
▁ferm	-11.1398
▁courtoise	-11.1398
▁arm	-11.1399
▁mode	-11.14
▁courtois	-11.1401
▁arret	-11.1402
▁demand	-11.1404
▁affair	-11.1404
▁complet	-11.1406
▁aristocrat	-11.1406
▁degourdi	-11.1406
▁dentist	-11.1406
▁diplomat	-11.1406
▁fascine	-11.1406
▁ingenu	-11.1406
▁lourd	-11.1406
▁masochist	-11.1406
▁oriental	-11.1406
▁promu	-11.1406
▁puritain	-11.1406
▁ouvr	-11.1406
▁emballe	-11.1406
▁servant	-11.1406
▁vu	-11.1406
▁sourd	-11.1406
▁franc	-11.1406
▁precis	-11.1406
▁calm	-11.1407
▁agit	-11.1407
▁reussit	-11.1407
▁pensionne	-11.1407
ffre	-11.1407
mons	-11.1407
▁suit	-11.1408
▁etourdi	-11.1409
rois	-11.1409
▁espion	-11.1409
▁human	-11.1409
▁slo	-11.1413
rice	-11.1414
model	-11.1414
penser	-11.1414
▁ennuy	-11.1414
ful	-11.1414
▁tien	-11.1415
▁poursuit	-11.1416
▁remporte	-11.1416
▁temporise	-11.1416
▁utilise	-11.1417
▁epouse	-11.1417
▁eff	-11.1417
▁marry	-11.1417
nic	-11.1417
▁blush	-11.1417
▁persever	-11.1417
▁hid	-11.1418
uver	-11.1418
▁pull	-11.1418
▁wait	-11.1418
▁fall	-11.1418
▁hang	-11.1418
▁dirige	-11.1418
▁catch	-11.1418
▁annoy	-11.1418
▁hu	-11.1418
▁wor	-11.1419
▁foreign	-11.1419
▁torture	-11.142
ites	-11.142
▁rare	-11.142
▁impress	-11.142
▁excelle	-11.142
▁connait	-11.142
▁infecte	-11.142
▁culture	-11.142
▁write	-11.142
▁impression	-11.1421
▁conduis	-11.1421
▁deep	-11.1421
▁australia	-11.1421
▁whe	-11.1421
▁whi	-11.1421
▁spontane	-11.1422
▁rou	-11.1422
▁drague	-11.1422
▁ec	-11.1422
▁fire	-11.1422
▁material	-11.1422
ative	-11.1422
▁bougon	-11.1422
▁chine	-11.1422
▁doubt	-11.1422
▁cuis	-11.1422
▁voit	-11.1422
▁million	-11.1422
▁influent	-11.1422
▁vide	-11.1422
sitive	-11.1422
wel	-11.1422
▁australie	-11.1422
▁autosuffisant	-11.1422
▁cannibal	-11.1422
▁develop	-11.1422
▁financial	-11.1422
▁histori	-11.1422
▁hypocrit	-11.1422
▁odd	-11.1422
▁singapo	-11.1422
▁synchronise	-11.1422
▁terrorist	-11.1422
arsighted	-11.1422
emotionnellement	-11.1422
gueule	-11.1422
ippe	-11.1422
loyaux	-11.1422
preniez	-11.1422
respond	-11.1422
responsibilities	-11.1422
satisfaction	-11.1422
sympathetic	-11.1422
▁abandonnons	-11.1422
▁abattu	-11.1422
▁abeille	-11.1422
▁abusing	-11.1422
▁acariatre	-11.1422
▁acquaintance	-11.1422
▁acquerir	-11.1422
▁acrobat	-11.1422
▁admirateurs	-11.1422
▁advantage	-11.1422
▁adventur	-11.1422
▁aeroport	-11.1422
▁affole	-11.1422
▁agressif	-11.1422
▁airport	-11.1422
▁alcoholic	-11.1422
▁alentours	-11.1422
▁alliance	-11.1422
▁ambidextr	-11.1422
▁ambulance	-11.1422
▁amusons	-11.1422
▁analyzing	-11.1422
▁angleterre	-11.1422
▁anniversaire	-11.1422
▁anxieux	-11.1422
▁anyway	-11.1422
▁apparently	-11.1422
▁appartenons	-11.1422
▁approaching	-11.1422
▁araignees	-11.1422
▁ardemment	-11.1422
▁arriere	-11.1422
▁articulate	-11.1422
▁asseoir	-11.1422
▁assistance	-11.1422
▁astronomy	-11.1422
▁athleti	-11.1422
▁attraper	-11.1422
▁aupres	-11.1422
▁australiens	-11.1422
▁avait	-11.1422
▁average	-11.1422
▁averee	-11.1422
▁avoiding	-11.1422
▁baffled	-11.1422
▁bagarre	-11.1422
▁baquet	-11.1422
▁baraka	-11.1422
▁bartender	-11.1422
▁baseball	-11.1422
▁batiment	-11.1422
▁benevolat	-11.1422
▁beside	-11.1422
▁beyond	-11.1422
▁biggest	-11.1422
▁binoclard	-11.1422
▁biologie	-11.1422
▁biology	-11.1422
▁bjork	-11.1422
▁bloque	-11.1422
▁bluffing	-11.1422
▁boulanger	-11.1422
▁bouquin	-11.1422
▁bousiller	-11.1422
▁boyfriend	-11.1422
▁breakfast	-11.1422
▁breast	-11.1422
▁bringing	-11.1422
▁broadway	-11.1422
▁bronzent	-11.1422
▁brosse	-11.1422
▁brushing	-11.1422
▁bulgari	-11.1422
▁canada	-11.1422
▁canape	-11.1422
▁cantankerous	-11.1422
▁cardiologist	-11.1422
▁cardiologue	-11.1422
▁celebrit	-11.1422
▁cellulaire	-11.1422
▁ceramique	-11.1422
▁ceremonies	-11.1422
▁chandail	-11.1422
▁character	-11.1422
▁checking	-11.1422
▁cheval	-11.1422
▁cheveux	-11.1422
▁china	-11.1422
▁chiot	-11.1422
▁chocolat	-11.1422
▁chomage	-11.1422
▁chouchoute	-11.1422
▁chretiennes	-11.1422
▁chubby	-11.1422
▁church	-11.1422
▁citadine	-11.1422
▁claustrophobe	-11.1422
▁claustrophobic	-11.1422
▁clerk	-11.1422
▁cocaine	-11.1422
▁colombi	-11.1422
▁commerce	-11.1422
▁committed	-11.1422
▁comparing	-11.1422
▁compil	-11.1422
▁compromis	-11.1422
▁condamnes	-11.1422
▁congres	-11.1422
▁conscience	-11.1422
▁consequence	-11.1422
▁constituent	-11.1422
▁construction	-11.1422
▁contagieu	-11.1422
▁contagious	-11.1422
▁conversation	-11.1422
▁corps	-11.1422
▁countries	-11.1422
▁cream	-11.1422
▁creationist	-11.1422
▁crime	-11.1422
▁croati	-11.1422
▁crop	-11.1422
▁cross	-11.1422
▁cupide	-11.1422
▁currently	-11.1422
▁dactylo	-11.1422
▁deceiving	-11.1422
▁decevez	-11.1422
▁decourage	-11.1422
▁dedicated	-11.1422
▁defenseless	-11.1422
▁defenses	-11.1422
▁dehydrated	-11.1422
▁deluding	-11.1422
▁desarme	-11.1422
▁deshydrate	-11.1422
▁desobeis	-11.1422
▁detective	-11.1422
▁diabetic	-11.1422
▁diabetique	-11.1422
▁disagreeing	-11.1422
▁disobeying	-11.1422
▁disparu	-11.1422
▁disposition	-11.1422
▁distracted	-11.1422
▁dominer	-11.1422
▁doomed	-11.1422
▁downtown	-11.1422
▁drained	-11.1422
▁drawing	-11.1422
▁drop	-11.1422
▁drowning	-11.1422
▁easygoing	-11.1422
▁editeur	-11.1422
▁editor	-11.1422
▁egg	-11.1422
▁eglise	-11.1422
▁egypt	-11.1422
▁electrician	-11.1422
▁electricien	-11.1422
▁elimine	-11.1422
▁elite	-11.1422
▁else	-11.1422
▁elusive	-11.1422
▁embouteillage	-11.1422
▁emergency	-11.1422
▁emmerde	-11.1422
▁emotions	-11.1422
▁empeche	-11.1422
▁enceinte	-11.1422
▁enfrein	-11.1422
▁engineer	-11.1422
▁england	-11.1422
▁enrhume	-11.1422
▁enthousiasme	-11.1422
▁epluche	-11.1422
▁epouvantable	-11.1422
▁equal	-11.1422
▁erudit	-11.1422
▁espace	-11.1422
▁espagnol	-11.1422
▁essayons	-11.1422
▁estomac	-11.1422
▁etudions	-11.1422
▁evacu	-11.1422
▁exactly	-11.1422
▁execrable	-11.1422
▁express	-11.1422
▁fabuleu	-11.1422
▁fabulous	-11.1422
▁fantomes	-11.1422
▁fellow	-11.1422
▁finishing	-11.1422
▁flabbergasted	-11.1422
▁flemm	-11.1422
▁forgot	-11.1422
▁formidable	-11.1422
▁fossil	-11.1422
▁foutu	-11.1422
▁fraiche	-11.1422
▁frantic	-11.1422
▁fraud	-11.1422
▁frustrated	-11.1422
▁frustre	-11.1422
▁furieuses	-11.1422
▁gaining	-11.1422
▁gambling	-11.1422
▁gathering	-11.1422
▁gele	-11.1422
▁georgia	-11.1422
▁georgie	-11.1422
▁gluten	-11.1422
▁gourmand	-11.1422
▁gracious	-11.1422
▁grassouillet	-11.1422
▁gravir	-11.1422
▁grincheu	-11.1422
▁grognon	-11.1422
▁guitar	-11.1422
▁halfway	-11.1422
▁hallucine	-11.1422
▁hamburgers	-11.1422
▁handicapped	-11.1422
▁harcele	-11.1422
▁hilarious	-11.1422
▁hill	-11.1422
▁homeschooled	-11.1422
▁honore	-11.1422
▁horaire	-11.1422
▁hottie	-11.1422
▁housesitting	-11.1422
▁humain	-11.1422
▁hyogo	-11.1422
▁hyperactive	-11.1422
▁hypnoti	-11.1422
▁immediately	-11.1422
▁immoral	-11.1422
▁immune	-11.1422
▁immunise	-11.1422
▁impartial	-11.1422
▁impresario	-11.1422
▁impuissantes	-11.1422
▁impuissants	-11.1422
▁incapable	-11.1422
▁inclined	-11.1422
▁included	-11.1422
▁incompetent	-11.1422
▁inconnu	-11.1422
▁inconscient	-11.1422
▁inconvenience	-11.1422
▁indebted	-11.1422
▁indisponible	-11.1422
▁ingenieur	-11.1422
▁injuste	-11.1422
▁insaisissable	-11.1422
▁insatisfait	-11.1422
▁insecure	-11.1422
▁insensible	-11.1422
▁interet	-11.1422
▁interfering	-11.1422
▁interprete	-11.1422
▁investigating	-11.1422
▁investigation	-11.1422
▁invetere	-11.1422
▁invincible	-11.1422
▁irresistible	-11.1422
▁irresponsable	-11.1422
▁irresponsible	-11.1422
▁ivrogne	-11.1422
▁jackson	-11.1422
▁jetables	-11.1422
▁jumeaux	-11.1422
▁kabuki	-11.1422
▁kept	-11.1422
▁kilos	-11.1422
▁limite	-11.1422
▁linux	-11.1422
▁liquid	-11.1422
▁loose	-11.1422
▁malgre	-11.1422
▁malpoli	-11.1422
▁manipule	-11.1422
▁marriage	-11.1422
▁materiel	-11.1422
▁mcdonald	-11.1422
▁medicaments	-11.1422
▁mediocre	-11.1422
▁mentionne	-11.1422
▁mercy	-11.1422
▁methodical	-11.1422
▁methodique	-11.1422
▁minutes	-11.1422
▁miserable	-11.1422
▁mobile	-11.1422
▁monopoly	-11.1422
▁monoton	-11.1422
▁mouth	-11.1422
▁mouton	-11.1422
▁mouvement	-11.1422
▁moyen	-11.1422
▁multi	-11.1422
▁myope	-11.1422
▁naissance	-11.1422
▁narita	-11.1422
▁narrow	-11.1422
▁negre	-11.1422
▁newspaper	-11.1422
▁nourris	-11.1422
▁number	-11.1422
▁numero	-11.1422
▁obedient	-11.1422
▁obese	-11.1422
▁objet	-11.1422
▁obstinate	-11.1422
▁occupons	-11.1422
▁oceanographe	-11.1422
▁oceans	-11.1422
▁october	-11.1422
▁octobre	-11.1422
▁odieux	-11.1422
▁officially	-11.1422
▁oiseau	-11.1422
▁ooita	-11.1422
▁oppose	-11.1422
▁options	-11.1422
▁orchestr	-11.1422
▁organization	-11.1422
▁organized	-11.1422
▁originaire	-11.1422
▁origine	-11.1422
▁orph	-11.1422
▁otage	-11.1422
▁overconfident	-11.1422
▁overemotional	-11.1422
▁oxford	-11.1422
▁pajamas	-11.1422
▁panicking	-11.1422
▁parasol	-11.1422
▁parvenir	-11.1422
▁pattern	-11.1422
▁perfectionist	-11.1422
▁perfectionniste	-11.1422
▁physicien	-11.1422
▁physicist	-11.1422
▁pianist	-11.1422
▁piegees	-11.1422
▁pieges	-11.1422
▁pietre	-11.1422
▁pigeon	-11.1422
▁pigiste	-11.1422
▁piste	-11.1422
▁plaignez	-11.1422
▁plaisir	-11.1422
▁portefeuille	-11.1422
▁portiez	-11.1422
▁portugal	-11.1422
▁position	-11.1422
▁pottery	-11.1422
▁practicing	-11.1422
▁praise	-11.1422
▁precious	-11.1422
▁prejudiced	-11.1422
▁preparatifs	-11.1422
▁princess	-11.1422
▁proficient	-11.1422
▁programme	-11.1422
▁promenade	-11.1422
▁promesse	-11.1422
▁prometteur	-11.1422
▁prompt	-11.1422
▁propriete	-11.1422
▁puisse	-11.1422
▁punished	-11.1422
▁pyjama	-11.1422
▁radin	-11.1422
▁raide	-11.1422
▁ramene	-11.1422
▁rapport	-11.1422
▁rapproch	-11.1422
▁receiving	-11.1422
▁recession	-11.1422
▁recriminations	-11.1422
▁recupere	-11.1422
▁reformed	-11.1422
▁relationship	-11.1422
▁relative	-11.1422
▁reliev	-11.1422
▁remarkabl	-11.1422
▁remarqu	-11.1422
▁remember	-11.1422
▁renommee	-11.1422
▁repentir	-11.1422
▁reprocher	-11.1422
▁reproduira	-11.1422
▁requerir	-11.1422
▁restaurant	-11.1422
▁retablissement	-11.1422
▁retirons	-11.1422
▁rhume	-11.1422
▁rifle	-11.1422
▁robot	-11.1422
▁rompu	-11.1422
▁rope	-11.1422
▁rudiments	-11.1422
▁rugby	-11.1422
▁rumeur	-11.1422
▁rusty	-11.1422
▁salaire	-11.1422
▁sauvage	-11.1422
▁scolarise	-11.1422
▁security	-11.1422
▁semester	-11.1422
▁semestre	-11.1422
▁separated	-11.1422
▁sept	-11.1422
▁shadow	-11.1422
▁shizuoka	-11.1422
▁shortcomings	-11.1422
▁similaires	-11.1422
▁skate	-11.1422
▁skating	-11.1422
▁slacker	-11.1422
▁slim	-11.1422
▁slowpoke	-11.1422
▁smell	-11.1422
▁smooth	-11.1422
▁sofa	-11.1422
▁sourire	-11.1422
▁southpaw	-11.1422
▁space	-11.1422
▁spanish	-11.1422
▁spiders	-11.1422
▁spies	-11.1422
▁spoiled	-11.1422
▁spoken	-11.1422
▁spokesperson	-11.1422
▁stationner	-11.1422
▁statue	-11.1422
▁studies	-11.1422
▁subissons	-11.1422
▁submerge	-11.1422
▁suddenly	-11.1422
▁sufficient	-11.1422
▁sugar	-11.1422
▁supplie	-11.1422
▁survivors	-11.1422
▁susceptible	-11.1422
▁suspicieuse	-11.1422
▁suspicieux	-11.1422
▁swamped	-11.1422
▁swiss	-11.1422
▁sync	-11.1422
▁taquine	-11.1422
▁tarabuster	-11.1422
▁tattletale	-11.1422
▁taxi	-11.1422
▁technique	-11.1422
▁tempting	-11.1422
▁tenancier	-11.1422
▁thanksgiving	-11.1422
▁themselves	-11.1422
▁thick	-11.1422
▁thieves	-11.1422
▁threat	-11.1422
▁toxico	-11.1422
▁traffic	-11.1422
▁trespassing	-11.1422
▁triathlon	-11.1422
▁tripote	-11.1422
▁troublemaker	-11.1422
▁turkey	-11.1422
▁turquie	-11.1422
▁twisting	-11.1422
▁typique	-11.1422
▁typist	-11.1422
▁unbiased	-11.1422
▁uncomfortable	-11.1422
▁unconscious	-11.1422
▁unconvinced	-11.1422
▁undamaged	-11.1422
▁unethical	-11.1422
▁unfair	-11.1422
▁unfit	-11.1422
▁unprejudiced	-11.1422
▁unrelated	-11.1422
▁unsatisfied	-11.1422
▁vaut	-11.1422
▁vecu	-11.1422
▁veiller	-11.1422
▁vendrai	-11.1422
▁vendre	-11.1422
▁vendu	-11.1422
▁verifie	-11.1422
▁veut	-11.1422
▁videogames	-11.1422
▁view	-11.1422
▁violinist	-11.1422
▁violoniste	-11.1422
▁weekdays	-11.1422
▁weekend	-11.1422
▁why	-11.1422
▁wol	-11.1422
▁wraps	-11.1422
▁zambi	-11.1422
vice	-11.1422
▁abruti	-11.1422
▁achetons	-11.1422
▁aidiez	-11.1422
▁archeologi	-11.1422
▁astronomie	-11.1422
▁aventure	-11.1422
▁basket	-11.1422
▁crocs	-11.1422
▁decoll	-11.1422
▁denying	-11.1422
▁documenta	-11.1422
▁enquetons	-11.1422
▁gymnasti	-11.1422
▁hanov	-11.1422
▁heavier	-11.1422
▁hostilit	-11.1422
▁latin	-11.1422
▁magici	-11.1422
▁manteau	-11.1422
▁middle	-11.1422
▁milieu	-11.1422
▁moque	-11.1422
▁moto	-11.1422
▁nap	-11.1422
▁purist	-11.1422
▁renown	-11.1422
▁requiers	-11.1422
▁reunion	-11.1422
▁salary	-11.1422
▁sell	-11.1422
▁sida	-11.1422
▁snow	-11.1422
▁sociolog	-11.1422
▁sorcier	-11.1422
▁speech	-11.1422
▁tremble	-11.1422
▁appare	-11.1422
▁comedian	-11.1422
▁comedien	-11.1422
▁frat	-11.1422
▁holding	-11.1422
▁hunk	-11.1422
▁irrita	-11.1422
▁onereuses	-11.1422
▁retiring	-11.1422
▁shivering	-11.1422
▁sinking	-11.1422
▁sunbathing	-11.1422
izing	-11.1422
rupt	-11.1422
spiri	-11.1422
▁analyse	-11.1422
▁cinquantaine	-11.1422
▁enquete	-11.1422
▁officiellement	-11.1422
▁planifi	-11.1422
▁refuse	-11.1422
▁revenir	-11.1422
▁bloo	-11.1422
▁entete	-11.1422
▁gentlemen	-11.1422
▁ideal	-11.1422
▁matiere	-11.1422
▁rumor	-11.1422
▁tableau	-11.1422
▁thune	-11.1422
ottes	-11.1422
▁drille	-11.1422
▁peeling	-11.1422
▁ramasse	-11.1422
▁theft	-11.1422
▁wit	-11.1422
▁chatouilleu	-11.1422
▁neige	-11.1422
▁seems	-11.1422
▁epreuve	-11.1422
▁excessive	-11.1422
▁meditating	-11.1422
▁penderie	-11.1422
▁puni	-11.1422
▁renard	-11.1422
▁rougir	-11.1422
▁ticklish	-11.1422
▁cured	-11.1422
▁eight	-11.1422
▁influential	-11.1422
▁reply	-11.1422
▁cartes	-11.1422
▁eu	-11.1422
▁fringa	-11.1422
▁grumbling	-11.1422
▁ignoriez	-11.1422
▁peine	-11.1422
▁regles	-11.1422
▁clock	-11.1422
▁colli	-11.1422
▁danseuse	-11.1422
▁obsess	-11.1422
▁anticipating	-11.1422
▁birthday	-11.1422
▁fifties	-11.1422
▁ignorais	-11.1422
▁imaginative	-11.1422
▁north	-11.1422
▁optimistic	-11.1422
▁scores	-11.1422
▁stopping	-11.1422
▁stories	-11.1422
▁task	-11.1422
▁agissent	-11.1422
▁agriculteur	-11.1422
▁earth	-11.1422
▁obeissant	-11.1422
▁intact	-11.1422
▁journal	-11.1422
▁menace	-11.1422
▁choice	-11.1422
▁speciaux	-11.1422
▁doubtful	-11.1422
▁evidemment	-11.1422
▁puppy	-11.1422
▁russes	-11.1422
▁aiming	-11.1422
▁coco	-11.1422
▁handling	-11.1422
▁joyeuses	-11.1422
▁state	-11.1422
▁build	-11.1422
▁chichis	-11.1422
▁rules	-11.1422
▁sheep	-11.1422
▁collection	-11.1422
ump	-11.1422
▁amende	-11.1422
▁minutieux	-11.1422
▁prix	-11.1422
▁track	-11.1422
guise	-11.1422
▁attente	-11.1422
▁audac	-11.1422
▁frime	-11.1422
▁riding	-11.1422
▁convenez	-11.1422
▁dragueurs	-11.1422
▁dragueuse	-11.1422
jouter	-11.1422
▁baker	-11.1422
▁heartless	-11.1422
▁moral	-11.1422
▁panique	-11.1422
▁respectueux	-11.1422
▁thoughtful	-11.1422
▁comite	-11.1422
▁mediter	-11.1422
▁prophe	-11.1422
▁supportive	-11.1422
▁bathroom	-11.1422
▁grill	-11.1422
▁labeur	-11.1422
▁stir	-11.1422
▁wallet	-11.1422
souffle	-11.1422
▁disposal	-11.1422
▁izu	-11.1422
▁dessous	-11.1422
▁materialist	-11.1422
▁happen	-11.1422
▁uf	-11.1422
▁amends	-11.1422
▁coucher	-11.1422
▁heroino	-11.1422
▁departement	-11.1422
▁partisan	-11.1422
▁extenue	-11.1422
▁firing	-11.1422
▁manner	-11.1422
▁signal	-11.1422
▁maniaque	-11.1422
▁adaptable	-11.1422
▁dalle	-11.1422
▁fake	-11.1422
▁respectable	-11.1422
▁valuable	-11.1422
▁adm	-11.1422
▁avantage	-11.1422
▁coche	-11.1422
conque	-11.1422
▁choisi	-11.1422
▁compagnon	-11.1422
▁disposable	-11.1422
▁fox	-11.1422
▁oreill	-11.1422
▁chantage	-11.1422
▁flight	-11.1422
▁coast	-11.1423
▁interrompez	-11.1423
▁mayor	-11.1423
▁panier	-11.1423
▁veste	-11.1423
▁etroit	-11.1423
▁pressing	-11.1423
▁spontaneous	-11.1423
▁weakness	-11.1423
▁bound	-11.1423
▁bragging	-11.1423
▁survivant	-11.1423
▁boisson	-11.1423
▁realize	-11.1423
▁profite	-11.1423
▁serail	-11.1423
charpe	-11.1423
▁failure	-11.1423
▁sweetest	-11.1423
▁won	-11.1423
▁bougonne	-11.1423
▁russian	-11.1423
▁soldat	-11.1423
▁coat	-11.1423
▁traitresse	-11.1423
▁nageur	-11.1423
▁paraly	-11.1423
▁awfully	-11.1423
▁distantly	-11.1423
▁fumeur	-11.1423
▁peinture	-11.1423
▁regrettons	-11.1423
▁aurons	-11.1423
▁gentilhomme	-11.1423
▁nus	-11.1423
▁foyer	-11.1423
nier	-11.1423
terne	-11.1423
▁discouraged	-11.1423
▁chatte	-11.1423
▁nord	-11.1423
▁lesson	-11.1423
▁recovery	-11.1423
▁publication	-11.1423
▁sud	-11.1423
▁convient	-11.1423
▁spot	-11.1423
▁worse	-11.1423
▁clairement	-11.1423
▁financierement	-11.1423
▁freshman	-11.1423
▁sued	-11.1423
▁when	-11.1423
▁humanity	-11.1423
▁conduisez	-11.1423
▁ennuyez	-11.1423
▁pap	-11.1423
sentiment	-11.1423
▁construit	-11.1423
▁critical	-11.1423
▁tardive	-11.1423
▁citoyenne	-11.1423
▁general	-11.1423
▁arab	-11.1423
▁headache	-11.1423
▁linge	-11.1423
▁talons	-11.1423
▁cancer	-11.1423
▁front	-11.1423
▁rarely	-11.1423
▁bouger	-11.1423
▁kisser	-11.1423
▁negocier	-11.1423
▁antiqu	-11.1424
▁reveur	-11.1424
▁naturel	-11.1424
▁pic	-11.1424
zo	-11.1424
▁brit	-11.1424
▁vision	-11.1424
▁professionnelle	-11.1424
▁cultured	-11.1424
▁infected	-11.1424
venons	-11.1424
▁hostage	-11.1424
▁leeds	-11.1424
▁manipulated	-11.1424
▁soucieux	-11.1424
▁vivante	-11.1424
▁puissions	-11.1424
▁department	-11.1424
▁rarement	-11.1424
cycle	-11.1424
▁tricot	-11.1424
▁hunt	-11.1424
▁advocating	-11.1424
▁cheating	-11.1424
▁interrupting	-11.1424
▁marketing	-11.1424
▁negotiating	-11.1424
▁poisoning	-11.1424
▁protection	-11.1424
▁throwing	-11.1424
▁allowing	-11.1424
▁pleure	-11.1424
▁simul	-11.1424
▁corn	-11.1424
▁lived	-11.1424
▁dejeune	-11.1424
▁basque	-11.1424
▁oublieux	-11.1424
▁appre	-11.1424
▁presentable	-11.1424
▁criticizing	-11.1425
▁realise	-11.1425
▁cooperez	-11.1425
▁touching	-11.1425
▁confronted	-11.1425
▁deuxieme	-11.1425
▁attached	-11.1425
▁upstairs	-11.1425
▁proposal	-11.1425
▁arroser	-11.1425
▁lancer	-11.1425
▁detester	-11.1425
▁kindness	-11.1425
▁clothes	-11.1425
▁attaquees	-11.1425
▁decedees	-11.1425
▁surviving	-11.1425
usement	-11.1425
ther	-11.1425
▁doll	-11.1425
▁dependable	-11.1425
▁faiblesse	-11.1425
▁promising	-11.1425
▁attacked	-11.1425
▁looked	-11.1425
▁paque	-11.1425
▁dreamer	-11.1425
▁reporter	-11.1425
▁approchent	-11.1425
▁scen	-11.1425
▁nombre	-11.1425
cking	-11.1425
winner	-11.1425
▁racc	-11.1425
▁lentement	-11.1425
▁gentillesse	-11.1426
▁directeur	-11.1426
▁planque	-11.1426
▁callous	-11.1426
▁chief	-11.1426
▁bord	-11.1426
▁poser	-11.1426
▁realistic	-11.1426
▁shot	-11.1426
▁vin	-11.1426
▁voila	-11.1426
▁seeking	-11.1426
▁sincerement	-11.1426
▁body	-11.1426
▁herbe	-11.1426
▁support	-11.1426
▁glasses	-11.1426
teen	-11.1426
▁bug	-11.1426
▁carb	-11.1426
▁started	-11.1426
▁autant	-11.1426
▁conduite	-11.1426
▁dessiner	-11.1426
umine	-11.1426
▁excusez	-11.1426
▁cash	-11.1426
▁hanging	-11.1427
▁persevering	-11.1427
▁marrying	-11.1427
▁menent	-11.1427
▁commets	-11.1427
▁falling	-11.1427
▁leger	-11.1427
▁ancien	-11.1427
▁serait	-11.1427
▁disent	-11.1427
▁ring	-11.1427
▁slowly	-11.1427
▁remporter	-11.1428
▁temporiser	-11.1428
▁trompez	-11.1428
▁torturer	-11.1428
▁poursuites	-11.1428
▁south	-11.1428
▁economic	-11.1428
▁underage	-11.1428
bies	-11.1428
▁sera	-11.1428
▁scare	-11.1428
▁attache	-11.1428
ated	-11.1428
▁partiel	-11.1428
▁saved	-11.1428
▁jalousent	-11.1428
▁gardener	-11.1429
▁environment	-11.1429
▁deforme	-11.1429
▁warming	-11.1429
▁soigne	-11.1429
▁quitting	-11.1429
▁follement	-11.1429
▁amused	-11.1429
pping	-11.1429
▁answering	-11.1429
▁manche	-11.1429
▁fortune	-11.1429
▁reasonable	-11.1429
▁sein	-11.1429
▁serai	-11.1429
▁clo	-11.1429
▁connaisse	-11.143
▁rested	-11.143
▁ecoutez	-11.143
▁spite	-11.143
▁determinee	-11.143
▁organise	-11.143
▁prie	-11.143
▁sang	-11.143
▁blessed	-11.143
▁helpless	-11.143
▁amusent	-11.1431
▁ennuient	-11.1431
▁catching	-11.1431
▁pant	-11.1431
▁tenter	-11.1431
▁conter	-11.1431
▁skier	-11.1431
▁barbar	-11.1431
▁ordering	-11.1431
▁emotionally	-11.1432
▁evite	-11.1432
▁gagnez	-11.1432
▁wrecked	-11.1432
▁restez	-11.1432
▁natured	-11.1433
▁desire	-11.1433
▁amusez	-11.1433
▁gueri	-11.1433
▁persuader	-11.1433
▁imit	-11.1434
▁liable	-11.1434
▁experimente	-11.1434
▁aurai	-11.1434
▁grandir	-11.1434
▁aids	-11.1434
▁criminelle	-11.1434
ish	-11.1434
▁forever	-11.1435
▁leading	-11.1435
▁complete	-11.1435
▁arrivent	-11.1435
▁soin	-11.1435
▁ligne	-11.1435
▁azer	-11.1435
▁hated	-11.1436
▁gl	-11.1436
▁fully	-11.1436
▁realiste	-11.1436
▁comprenne	-11.1436
▁learner	-11.1436
▁laver	-11.1437
▁begging	-11.1437
▁moody	-11.1438
▁canon	-11.1438
▁aristocrate	-11.1438
▁degourdie	-11.1438
▁dentiste	-11.1438
▁diplomate	-11.1438
▁emballee	-11.1438
▁etourdie	-11.1438
▁fascinee	-11.1438
▁ingenue	-11.1438
▁lourde	-11.1438
▁masochiste	-11.1438
▁orientale	-11.1438
▁ouvre	-11.1438
▁promue	-11.1438
▁puritaine	-11.1438
▁pensionnee	-11.1438
▁usage	-11.1439
▁agite	-11.1439
▁inspire	-11.1439
▁garder	-11.1439
▁fermer	-11.1439
▁testing	-11.1439
▁cousines	-11.144
▁reconnaissantes	-11.144
▁laisser	-11.144
▁queue	-11.144
▁biologist	-11.144
▁lecon	-11.144
▁peureux	-11.1441
▁watering	-11.1441
▁australiennes	-11.1441
▁concurrents	-11.1441
▁elections	-11.1441
▁entends	-11.1441
▁ghosts	-11.1441
▁intimes	-11.1441
▁killers	-11.1441
▁newcomers	-11.1441
▁pareils	-11.1441
▁windows	-11.1441
▁attaques	-11.1441
▁soutiens	-11.1441
▁racists	-11.1441
▁decedes	-11.1441
▁criminels	-11.1441
▁pareilles	-11.1441
▁descends	-11.1441
▁conne	-11.1442
▁cards	-11.1442
▁derangement	-11.1443
▁melons	-11.1443
▁cyni	-11.1443
▁ras	-11.1444
▁modest	-11.1444
▁racistes	-11.1444
▁egares	-11.1444
▁talker	-11.1444
▁pris	-11.1444
▁thinker	-11.1444
▁inquietent	-11.1445
▁voler	-11.1445
▁fishing	-11.1445
▁tient	-11.1445
▁amuser	-11.1445
▁read	-11.1446
▁voyageons	-11.1446
▁joueuse	-11.1447
▁adolescente	-11.1447
▁vannee	-11.1447
▁vilaine	-11.1447
▁laide	-11.1447
▁voyante	-11.1447
▁embrouillee	-11.1447
▁fauchees	-11.1447
▁meler	-11.1447
▁voisine	-11.1447
▁interessent	-11.1447
▁tomber	-11.1447
▁distraite	-11.1447
▁pete	-11.1448
▁formons	-11.1448
oning	-11.1448
▁lab	-11.1449
▁apprecier	-11.145
cted	-11.1452
▁engagees	-11.1453
▁bats	-11.1453
▁bare	-11.1453
▁confuse	-11.1454
▁amere	-11.1454
▁troubled	-11.1455
▁intimidee	-11.1455
▁douee	-11.1455
▁loupe	-11.1455
▁violente	-11.1456
▁dernieres	-11.1456
▁cesse	-11.1456
▁amateur	-11.1456
▁laying	-11.1456
eries	-11.1458
▁desk	-11.1459
▁shop	-11.1461
▁skilled	-11.1462
▁impliquees	-11.1462
▁identi	-11.1462
▁harvest	-11.1462
▁compatibles	-11.1462
▁magasins	-11.1462
▁mensonges	-11.1462
▁religieuses	-11.1462
▁risks	-11.1462
▁risques	-11.1462
▁sports	-11.1462
▁nerveuses	-11.1462
▁dreams	-11.1462
▁minds	-11.1462
▁roses	-11.1462
▁jardinier	-11.1462
▁soldier	-11.1462
▁cookies	-11.1464
▁usee	-11.1464
▁noise	-11.1464
▁sacree	-11.1464
▁sunk	-11.1464
▁cernes	-11.1465
▁parce	-11.1466
▁presente	-11.1467
▁bete	-11.1467
▁terrifies	-11.1467
▁saoules	-11.1468
▁opening	-11.1468
▁courtoises	-11.1468
▁cade	-11.1468
▁demander	-11.1469
▁habilles	-11.147
▁toward	-11.147
▁crevees	-11.147
▁perdues	-11.1471
▁divorcee	-11.1472
▁neck	-11.1474
▁devets	-11.1475
▁vivantes	-11.1477
iers	-11.1477
▁tonne	-11.1478
▁depart	-11.1478
▁face	-11.148
▁web	-11.148
▁depasse	-11.148
▁stricte	-11.1481
▁decevoir	-11.1481
▁meth	-11.1482
▁size	-11.1483
▁doutes	-11.1483
▁australians	-11.1483
▁ambitieuses	-11.1483
▁chansons	-11.1483
▁possibilites	-11.1483
▁embrouilles	-11.1483
▁endurants	-11.1483
▁tourists	-11.1483
▁held	-11.1483
▁sheet	-11.1484
▁noyer	-11.1484
▁avenue	-11.1486
▁wiser	-11.1488
▁excites	-11.1488
▁agent	-11.1488
▁excellente	-11.1489
▁horse	-11.1489
▁barre	-11.1489
▁cher	-11.149
▁endurantes	-11.1492
▁touristes	-11.1492
▁sournoises	-11.1495
▁partirons	-11.1497
▁appreciee	-11.1498
truck	-11.1502
▁combattr	-11.1503
▁jan	-11.1504
▁comportes	-11.1504
▁camarades	-11.1504
▁comprehensives	-11.1504
▁consciencieuses	-11.1504
▁craintifs	-11.1504
▁efficaces	-11.1504
▁emotifs	-11.1504
▁ingenieuses	-11.1504
▁serviables	-11.1504
▁sauves	-11.1504
▁payes	-11.1504
▁effrontes	-11.1504
▁raffines	-11.1504
▁craintives	-11.1505
▁inch	-11.1505
▁aimer	-11.1509
▁marrer	-11.1511
▁cry	-11.1512
▁qua	-11.1514
▁premiere	-11.1515
▁supposee	-11.1515
▁emploie	-11.1515
▁ouvertes	-11.1516
▁effrontees	-11.1516
▁raffinees	-11.1516
▁lois	-11.1518
nes	-11.1518
▁veinardes	-11.1519
▁esca	-11.152
▁puissantes	-11.1522
▁ennemies	-11.1525
▁viennes	-11.1525
▁allemands	-11.1525
▁avides	-11.1525
▁canadians	-11.1525
▁comprehensifs	-11.1525
▁emotives	-11.1525
▁genereuses	-11.1525
▁veinards	-11.1525
▁vivants	-11.1525
▁effrayees	-11.1528
▁endormies	-11.1528
▁prudentes	-11.1528
▁ecoutes	-11.1528
▁avises	-11.1528
▁sales	-11.153
▁beni	-11.1533
ree	-11.1535
▁reve	-11.154
▁avisees	-11.154
▁suspects	-11.1543
▁embarrassees	-11.1543
▁examens	-11.1546
▁histoires	-11.1546
▁responsabilites	-11.1546
▁solitaires	-11.1546
▁maigrichons	-11.1546
▁regardons	-11.1546
▁embarrasses	-11.1546
▁maigrichonnes	-11.1547
▁puissants	-11.1547
board	-11.1547
▁venus	-11.155
▁lies	-11.155
▁blessees	-11.1552
▁confiants	-11.1552
▁habillees	-11.1553
▁madly	-11.1554
▁disposes	-11.1555
▁interessantes	-11.1555
▁caches	-11.1557
▁moches	-11.1563
▁recevoir	-11.1564
▁remettre	-11.1565
▁research	-11.1566
▁flexibles	-11.1567
▁perplexes	-11.1567
▁quittes	-11.1567
▁gagnes	-11.1567
▁restes	-11.1568
▁attirants	-11.1568
▁ennemis	-11.1568
▁impliques	-11.1568
▁restent	-11.1571
▁chanceuses	-11.1571
▁deprimes	-11.1574
▁partial	-11.1574
▁decues	-11.1576
▁rendent	-11.1578
▁innocente	-11.1584
owl	-11.1584
▁fate	-11.1587
▁habiles	-11.1588
▁astucieuses	-11.1588
▁players	-11.1588
▁sceptiques	-11.1588
▁ennuies	-11.1588
▁reasons	-11.1589
▁effrayes	-11.1589
▁endormis	-11.1589
▁prudents	-11.1589
▁heure	-11.1592
bes	-11.1594
▁jeans	-11.1594
▁fouille	-11.1596
▁compos	-11.16
▁meilleures	-11.16
▁partis	-11.1601
▁egoistes	-11.161
▁saouls	-11.161
▁blesses	-11.161
▁tueur	-11.162
▁surement	-11.1622
▁tires	-11.1629
▁charges	-11.1631
▁curieuses	-11.1631
▁strangers	-11.1631
▁mecs	-11.1631
▁perdus	-11.1632
▁soucis	-11.1632
▁aimee	-11.1636
▁passes	-11.1642
cret	-11.1646
▁attirantes	-11.1652
▁situations	-11.1652
▁emplois	-11.1653
▁mignonnes	-11.1653
elle	-11.1654
▁fatiguer	-11.1657
▁interessees	-11.1658
▁secrets	-11.1674
▁information	-11.1676
tenue	-11.1684
▁anglaise	-11.1698
▁sc	-11.1703
▁bi	-11.1708
▁difficiles	-11.1717
▁teas	-11.1718
▁artists	-11.1718
▁dures	-11.172
▁etrangers	-11.1728
▁petites	-11.173
▁cotes	-11.1739
▁enf	-11.1739
▁unable	-11.1743
ar	-11.1745
▁americans	-11.176
▁artistes	-11.176
▁habituees	-11.1761
▁batt	-11.177
▁forment	-11.178
▁planet	-11.1797
▁capables	-11.1804
rick	-11.1826
▁estime	-11.1827
▁bienveillante	-11.1834
▁st	-11.1843
▁etude	-11.1846
ealing	-11.1852
▁hospitalit	-11.1861
▁crise	-11.1861
▁e	-11.1877
▁durs	-11.1889
▁boys	-11.1891
▁garcons	-11.1892
▁rester	-11.1897
▁let	-11.1932
ments	-11.1937
▁petits	-11.196
serons	-11.1969
▁longue	-11.1978
▁habitues	-11.2031
paraitre	-11.2037
▁commences	-11.2119
lles	-11.2154
▁professeurs	-11.2161
▁ac	-11.2174
sy	-11.2176
▁braves	-11.2207
▁vot	-11.2208
▁tetue	-11.2256
▁personnes	-11.2256
▁remuee	-11.2269
▁gavee	-11.227
▁aneantie	-11.2271
anges	-11.228
▁terrifiee	-11.2292
ouch	-11.2324
coton	-11.2362
▁liars	-11.2394
aille	-11.2408
decided	-11.2433
vivons	-11.2452
oon	-11.2455
▁rajeunis	-11.2477
▁baign	-11.2484
ced	-11.2494
▁ver	-11.2498
▁perde	-11.2513
▁times	-11.2519
oud	-11.2524
▁raisons	-11.2563
iaise	-11.2577
jouons	-11.2579
▁coul	-11.2611
▁finis	-11.2631
▁presidenti	-11.2639
voient	-11.2643
▁chas	-11.2661
▁eveillee	-11.269
oique	-11.2701
▁perdi	-11.2721
bine	-11.279
▁patiner	-11.2844
ctrices	-11.2857
sse	-11.2972
room	-11.2974
▁exerce	-11.3028
▁ruinee	-11.3055
▁sideree	-11.3074
▁waste	-11.3097
ign	-11.3114
▁lond	-11.3117
onger	-11.312
▁reagiss	-11.3199
▁mental	-11.324
▁maya	-11.324
res	-11.3244
aire	-11.3273
▁contribu	-11.3405
▁pech	-11.3407
ille	-11.3408
▁mer	-11.3417
king	-11.3442
▁retraitee	-11.3457
▁sociale	-11.3469
▁imagine	-11.3497
ty	-11.3509
▁leurr	-11.3583
sure	-11.3601
▁hers	-11.3684
▁saute	-11.3712
ient	-11.3715
ale	-11.3726
ateur	-11.3755
▁cooper	-11.3846
▁behav	-11.3934
▁bri	-11.3999
rise	-11.4007
▁becom	-11.4049
▁gache	-11.4075
▁bat	-11.4234
▁dramatis	-11.4235
▁traverse	-11.4241
▁ci	-11.4329
role	-11.4342
▁meticuleu	-11.4356
um	-11.4483
▁meticul	-11.4529
▁parfaite	-11.4627
▁sign	-11.464
ouper	-11.4678
ness	-11.4688
issez	-11.4725
▁coopere	-11.5073
▁dramatise	-11.5074
▁gard	-11.5075
longing	-11.5119
▁lean	-11.5127
uter	-11.5194
▁happi	-11.5211
▁expl	-11.5242
iquer	-11.5254
▁gach	-11.5255
▁less	-11.5308
▁mur	-11.5321
▁sugge	-11.5351
sting	-11.5369
▁detendue	-11.5383
his	-11.544
▁promis	-11.5569
cheur	-11.559
▁contributi	-11.56
nde	-11.5682
▁pac	-11.5737
▁salad	-11.5783
ine	-11.5818
design	-11.5833
▁politi	-11.5858
vis	-11.5877
▁exc	-11.5877
▁romanti	-11.5952
ondre	-11.5972
ienne	-11.5996
▁leurre	-11.5996
cs	-11.6024
▁saisis	-11.6032
▁exerc	-11.6089
ttent	-11.6095
▁broo	-11.6154
ore	-11.6189
▁cha	-11.6226
taire	-11.6329
ia	-11.633
▁patine	-11.6361
smoker	-11.6364
elles	-11.6384
▁dramat	-11.6419
asse	-11.653
gu	-11.6538
vente	-11.6539
b	-11.6561
▁echa	-11.6588
▁bal	-11.6607
▁jou	-11.661
▁manipulat	-11.6635
ial	-11.6648
▁kill	-11.6662
gue	-11.668
▁decor	-11.6712
▁niais	-11.6741
mor	-11.6742
▁pe	-11.6798
▁egar	-11.6853
▁rajeuni	-11.6889
▁surviv	-11.6925
ra	-11.6952
ssive	-11.7007
ssons	-11.7015
arde	-11.7066
leur	-11.708
ricot	-11.7116
▁pen	-11.7117
▁vo	-11.7144
▁mesur	-11.7165
▁rent	-11.7189
▁disput	-11.7242
▁repose	-11.7259
▁aie	-11.7284
▁arriv	-11.7338
eau	-11.7338
▁obs	-11.7435
ri	-11.7441
ours	-11.7442
▁suspecte	-11.7444
▁ga	-11.7468
▁bru	-11.7489
▁w	-11.7496
ling	-11.7499
ler	-11.7508
ared	-11.7523
ild	-11.7533
ad	-11.7549
ear	-11.7591
ans	-11.7626
▁parait	-11.763
ire	-11.7642
aw	-11.7648
tche	-11.7655
teaux	-11.7687
▁quali	-11.7696
ueur	-11.7723
uteur	-11.7723
lle	-11.7728
▁touch	-11.7764
lons	-11.7788
ll	-11.7804
▁ra	-11.7812
aque	-11.7841
con	-11.7874
lines	-11.7874
sole	-11.7887
irai	-11.7889
ck	-11.7894
▁jesuit	-11.7954
udes	-11.7957
▁blam	-11.7969
▁bienveillant	-11.7979
ets	-11.7986
▁cris	-11.7988
▁chant	-11.799
▁estim	-11.7992
tters	-11.8002
be	-11.8036
▁gross	-11.8039
▁assur	-11.8042
ity	-11.8055
▁fanta	-11.8057
▁deshabill	-11.8058
h	-11.807
▁soupe	-11.8079
▁ev	-11.8092
oirs	-11.8116
▁indiffere	-11.8119
penses	-11.8131
ight	-11.8137
▁command	-11.8139
mer	-11.8151
ede	-11.8155
▁bill	-11.8157
g	-11.8157
▁dispos	-11.8171
▁send	-11.8192
ue	-11.8197
qua	-11.8204
▁quoi	-11.8212
▁monst	-11.8216
aster	-11.8229
ois	-11.8236
chi	-11.8238
▁signe	-11.8246
lez	-11.827
▁humanit	-11.8271
hase	-11.8272
▁chemis	-11.8273
▁informati	-11.8277
achons	-11.8287
o	-11.8291
▁quat	-11.8296
▁jo	-11.8319
v	-11.832
ding	-11.8327
ve	-11.8333
▁pla	-11.8341
▁bo	-11.8343
lar	-11.8345
▁souffr	-11.8349
▁impressionn	-11.8355
▁particulier	-11.8357
▁tick	-11.8364
ping	-11.8369
ort	-11.8376
cevoir	-11.8379
led	-11.8382
gne	-11.8389
▁personnel	-11.8391
▁devoue	-11.8404
▁cut	-11.8409
ince	-11.8416
▁eva	-11.8431
ures	-11.844
ete	-11.8442
mpulsive	-11.8447
ake	-11.8449
gences	-11.8449
ouille	-11.8457
▁di	-11.8471
▁observ	-11.8484
ever	-11.8487
tenu	-11.849
vant	-11.8491
▁fi	-11.8495
ndent	-11.8496
▁encourage	-11.8497
mettre	-11.8497
search	-11.8499
ains	-11.85
ood	-11.8505
ignons	-11.8506
oches	-11.8507
eless	-11.8521
▁behavi	-11.853
au	-11.8532
▁fus	-11.8544
mie	-11.8549
du	-11.8563
pris	-11.8564
akes	-11.8567
▁sent	-11.8568
▁fil	-11.8575
▁commenc	-11.8578
iens	-11.8578
wed	-11.859
▁medic	-11.8594
mis	-11.8598
▁quitt	-11.8602
igner	-11.8602
vons	-11.8602
▁acco	-11.8605
plie	-11.8606
like	-11.8612
enez	-11.8614
cteur	-11.8616
here	-11.8617
▁clu	-11.8617
men	-11.8621
ware	-11.8623
ame	-11.8624
▁truc	-11.8629
itting	-11.864
▁employ	-11.864
iter	-11.8643
uiller	-11.8644
ld	-11.8653
sh	-11.8658
▁dou	-11.8659
part	-11.8659
am	-11.8659
pend	-11.8661
ward	-11.8663
stent	-11.8664
scend	-11.8664
menage	-11.8664
ade	-11.8665
passe	-11.8665
qu	-11.8666
▁somme	-11.8667
day	-11.8669
cus	-11.867
▁introvert	-11.867
vrais	-11.8673
▁rechauff	-11.8673
menager	-11.8675
ying	-11.8676
aying	-11.8677
firm	-11.8679
ance	-11.8688
acte	-11.8688
▁passer	-11.8689
iefs	-11.8689
▁ben	-11.869
▁combat	-11.8692
trons	-11.8692
cer	-11.8692
solee	-11.8692
onne	-11.8694
▁tran	-11.8699
unk	-11.8702
ize	-11.8702
tresse	-11.8702
top	-11.8703
tendre	-11.8703
chauffer	-11.8707
vesting	-11.8707
battre	-11.8708
▁cl	-11.8708
up	-11.8708
poser	-11.8713
till	-11.8713
▁redui	-11.8713
▁marb	-11.8714
aint	-11.8715
monstr	-11.872
▁criminel	-11.8722
ook	-11.8722
mne	-11.8723
andes	-11.8724
own	-11.8725
▁racist	-11.8725
▁acte	-11.8726
▁har	-11.8728
me	-11.8728
tton	-11.873
ettes	-11.8731
▁pri	-11.8732
▁aff	-11.8734
ma	-11.8734
loves	-11.8734
uer	-11.8736
homme	-11.8737
rme	-11.8737
el	-11.8737
oureuse	-11.8738
▁wa	-11.8739
▁economi	-11.8742
mbre	-11.8742
▁enfu	-11.8742
▁attaque	-11.8742
▁decede	-11.8742
ball	-11.8743
ach	-11.8744
rait	-11.8744
▁fin	-11.8744
urgi	-11.8745
nique	-11.8745
▁foi	-11.8745
illon	-11.8746
rip	-11.8746
▁agi	-11.8746
▁pareil	-11.8747
▁ghost	-11.8748
▁australienne	-11.8748
▁concurrent	-11.8748
▁election	-11.8748
▁intime	-11.8748
▁newcomer	-11.8748
▁window	-11.8748
▁soutien	-11.8748
▁crain	-11.8748
dia	-11.8748
▁prevoi	-11.8748
▁asiatique	-11.8749
▁pareille	-11.8749
▁question	-11.8749
▁langue	-11.8749
▁decision	-11.8749
ould	-11.8749
▁assi	-11.8749
alling	-11.8749
ologiste	-11.8749
▁rejoui	-11.8749
▁vou	-11.875
▁chien	-11.875
urious	-11.8751
ouche	-11.8751
▁killer	-11.8751
▁idee	-11.8752
spire	-11.8753
ntir	-11.8753
over	-11.8754
▁entend	-11.8754
croyan	-11.8756
▁asso	-11.8756
▁ear	-11.8756
riser	-11.8756
contes	-11.8756
▁plain	-11.8756
erie	-11.8756
uff	-11.8756
ust	-11.8756
ntite	-11.8757
▁conservat	-11.8757
▁rebel	-11.8758
▁gla	-11.8758
prennes	-11.8758
ombe	-11.876
dra	-11.876
ease	-11.876
reaming	-11.876
etendu	-11.876
ourant	-11.876
osing	-11.8762
iles	-11.8762
▁ecout	-11.8762
earning	-11.8763
unch	-11.8763
▁fact	-11.8763
oti	-11.8763
ples	-11.8764
▁monday	-11.8764
▁experienc	-11.8764
duite	-11.8764
▁raciste	-11.8765
▁fre	-11.8765
hard	-11.8765
▁scar	-11.8765
▁somm	-11.8766
▁habitu	-11.8766
▁chanc	-11.8766
▁egare	-11.8766
alist	-11.8766
▁div	-11.8766
▁invit	-11.8766
▁main	-11.8766
▁patin	-11.8767
▁argu	-11.8767
do	-11.8768
▁vieill	-11.8768
▁retenu	-11.8768
▁dessin	-11.8768
▁debut	-11.8768
▁dejeun	-11.8768
wing	-11.8768
▁gu	-11.8769
▁conc	-11.8769
▁respect	-11.8769
▁appreci	-11.8769
arian	-11.8769
▁po	-11.8769
▁attach	-11.8769
▁determine	-11.877
▁pleur	-11.877
tention	-11.877
▁concern	-11.877
▁wis	-11.877
▁natur	-11.877
loc	-11.877
pal	-11.877
▁stor	-11.877
aisse	-11.8771
▁experiment	-11.8771
iel	-11.8771
▁optimist	-11.8771
▁organis	-11.8771
▁seduisant	-11.8772
▁vetu	-11.8772
▁quarant	-11.8772
▁apologiz	-11.8772
▁blond	-11.8772
▁obstine	-11.8772
▁joli	-11.8772
▁contr	-11.8772
▁ecol	-11.8772
▁rob	-11.8772
▁societ	-11.8773
ormez	-11.8774
write	-11.8774
fois	-11.8774
▁cam	-11.8774
▁manqu	-11.8774
▁pardon	-11.8775
▁mour	-11.8775
donne	-11.8776
▁abo	-11.8776
annon	-11.8776
orcer	-11.8776
owed	-11.8776
fish	-11.8776
hai	-11.8777
tant	-11.8777
mper	-11.8777
body	-11.8777
▁vra	-11.8777
▁fache	-11.8778
prend	-11.8778
uth	-11.8778
nsiste	-11.8778
where	-11.8778
▁list	-11.8778
armed	-11.8778
try	-11.8778
tez	-11.8779
bas	-11.8779
dition	-11.8779
sociale	-11.8779
ice	-11.8779
cien	-11.8779
tching	-11.8779
allow	-11.8779
▁genia	-11.8779
light	-11.8779
vin	-11.8779
aff	-11.8779
dom	-11.8779
▁inqui	-11.8779
urn	-11.8779
jan	-11.8779
▁reussi	-11.8779
bug	-11.8779
chanceuses	-11.8779
experimente	-11.8779
glasses	-11.8779
marrer	-11.8779
realistic	-11.8779
reasonable	-11.8779
shot	-11.8779
support	-11.8779
tomber	-11.8779
voila	-11.8779
plane	-11.8779
bord	-11.8779
proches	-11.8779
foot	-11.878
doute	-11.878
remplacable	-11.878
dette	-11.878
tub	-11.878
conduct	-11.878
leve	-11.878
pension	-11.878
sociable	-11.878
went	-11.878
did	-11.878
roll	-11.878
connue	-11.878
evil	-11.878
seille	-11.878
jam	-11.878
populaire	-11.878
replaceable	-11.878
ecrire	-11.878
entend	-11.878
half	-11.878
believe	-11.878
commencer	-11.878
control	-11.878
accord	-11.878
baby	-11.878
poids	-11.878
popular	-11.878
counting	-11.878
weight	-11.878
chanceux	-11.878
broke	-11.878
together	-11.878
under	-11.878
dressed	-11.878
mother	-11.878
woman	-11.878
not	-11.878
off	-11.878
sick	-11.878
person	-11.878
temps	-11.878
what	-11.878
tick	-11.878
tout	-11.878
gra	-11.878
bal	-11.878
menent	-11.878
realiste	-11.878
llement	-11.878
aine	-11.878
law	-11.878
door	-11.878
▁repa	-11.878
mpla	-11.878
roche	-11.878
▁affai	-11.878
late	-11.878
cou	-11.878
food	-11.878
faire	-11.8781
urge	-11.8781
▁cru	-11.8781
chat	-11.8781
▁interest	-11.8781
ourdi	-11.8781
▁pou	-11.8781
nior	-11.8781
plain	-11.8781
stairs	-11.8781
▁fume	-11.8781
prendre	-11.8782
pu	-11.8782
▁ou	-11.8782
▁tempe	-11.8782
ato	-11.8782
ties	-11.8782
▁arrose	-11.8782
▁deteste	-11.8782
curite	-11.8782
▁gauche	-11.8782
▁neighbo	-11.8782
▁discute	-11.8782
▁devoi	-11.8782
▁protege	-11.8782
vees	-11.8782
▁cloth	-11.8782
▁interrupt	-11.8782
rbo	-11.8783
vienne	-11.8783
▁collect	-11.8783
ieme	-11.8783
▁advocat	-11.8783
▁begg	-11.8783
▁market	-11.8783
▁negotiat	-11.8783
▁poison	-11.8783
▁throw	-11.8783
▁cheat	-11.8783
▁volunteer	-11.8783
▁enjoy	-11.8783
▁stall	-11.8783
▁fauchee	-11.8783
rappe	-11.8783
▁criticiz	-11.8783
▁boug	-11.8783
tien	-11.8784
▁puissi	-11.8784
writer	-11.8784
▁wash	-11.8784
appeler	-11.8784
▁pouv	-11.8784
fishing	-11.8784
ible	-11.8784
ssante	-11.8784
▁kiss	-11.8784
▁negoci	-11.8784
consider	-11.8784
▁demissionn	-11.8784
▁show	-11.8785
▁listen	-11.8785
ound	-11.8785
▁puissan	-11.8785
▁sweat	-11.8785
▁satisfai	-11.8785
ig	-11.8785
▁intelligen	-11.8785
aria	-11.8785
▁violen	-11.8785
lises	-11.8785
▁anti	-11.8785
▁suffisa	-11.8785
▁peint	-11.8785
▁impatie	-11.8785
viti	-11.8785
▁neglige	-11.8785
▁compete	-11.8785
▁drama	-11.8785
▁elega	-11.8785
▁blackmail	-11.8786
▁financiere	-11.8786
▁relax	-11.8786
▁extrovert	-11.8786
▁overwork	-11.8786
▁profonde	-11.8786
▁accustom	-11.8786
▁construi	-11.8786
▁convien	-11.8786
▁claire	-11.8786
▁weigh	-11.8786
▁skinn	-11.8786
▁souven	-11.8786
▁deva	-11.8786
▁recover	-11.8786
▁thirst	-11.8786
▁wealth	-11.8786
▁alarme	-11.8786
▁finale	-11.8786
either	-11.8786
▁rentre	-11.8786
▁thirt	-11.8786
▁particular	-11.8786
▁usual	-11.8786
▁absolute	-11.8786
▁russi	-11.8786
▁awful	-11.8786
▁skill	-11.8786
▁worth	-11.8786
einture	-11.8786
▁pick	-11.8786
▁hume	-11.8786
▁feed	-11.8786
▁allergi	-11.8786
▁interromp	-11.8786
▁servi	-11.8786
bou	-11.8786
▁korea	-11.8787
▁ignor	-11.8787
lace	-11.8787
oite	-11.8787
▁compagn	-11.8787
▁imaginati	-11.8787
bai	-11.8787
▁respons	-11.8787
▁speci	-11.8787
lame	-11.8787
▁epo	-11.8787
▁valu	-11.8787
ffe	-11.8787
ragging	-11.8787
▁nul	-11.8787
▁degou	-11.8787
onnai	-11.8787
▁hawai	-11.8787
elin	-11.8787
▁forget	-11.8787
bac	-11.8787
ppy	-11.8787
eli	-11.8787
nou	-11.8787
▁vegetarien	-11.8787
tribu	-11.8787
ijo	-11.8787
▁mom	-11.8787
hab	-11.8787
▁institut	-11.8787
▁minutieu	-11.8787
▁respectueu	-11.8787
venez	-11.8787
▁gentle	-11.8787
▁power	-11.8787
▁evide	-11.8787
nstruit	-11.8787
▁consta	-11.8787
▁ridi	-11.8787
oisson	-11.8787
roupe	-11.8787
▁agricult	-11.8787
▁concentrati	-11.8787
▁egal	-11.8787
▁nourrit	-11.8787
icule	-11.8787
graphe	-11.8787
▁anticip	-11.8787
▁obei	-11.8787
fortable	-11.8787
umbling	-11.8787
▁debit	-11.8787
reproch	-11.8787
tude	-11.8787
▁coree	-11.8787
unning	-11.8787
nseigne	-11.8787
preuve	-11.8787
sulta	-11.8787
tuellement	-11.8787
utile	-11.8787
puls	-11.8787
▁laborato	-11.8787
oulin	-11.8787
▁christ	-11.8787
▁epa	-11.8787
sionnee	-11.8787
▁chauss	-11.8787
▁prev	-11.8787
ssemble	-11.8787
▁impulsi	-11.8787
blie	-11.8787
longe	-11.8787
rselves	-11.8787
▁magn	-11.8787
▁occ	-11.8787
▁opportuni	-11.8787
▁stra	-11.8787
sacr	-11.8787
▁colle	-11.8787
▁curio	-11.8787
croc	-11.8787
▁excessi	-11.8787
flower	-11.8787
munition	-11.8787
turer	-11.8787
▁cinquant	-11.8787
aught	-11.8787
ddle	-11.8787
fectionn	-11.8787
flexi	-11.8787
laca	-11.8787
ompe	-11.8787
ubli	-11.8787
▁capa	-11.8787
▁representa	-11.8787
astronomi	-11.8787
ficielle	-11.8787
iege	-11.8787
journe	-11.8787
lusion	-11.8787
pitoyable	-11.8787
rank	-11.8787
ronomie	-11.8787
uyer	-11.8787
agie	-11.8787
ambul	-11.8787
ceptive	-11.8787
cipa	-11.8787
credi	-11.8787
ctif	-11.8787
cture	-11.8787
dden	-11.8787
decis	-11.8787
ecked	-11.8787
enetre	-11.8787
holic	-11.8787
humb	-11.8787
icious	-11.8787
incre	-11.8787
jor	-11.8787
lange	-11.8787
ludi	-11.8787
mming	-11.8787
moun	-11.8787
ndering	-11.8787
olent	-11.8787
ollo	-11.8787
orphe	-11.8787
ourc	-11.8787
passion	-11.8787
pathe	-11.8787
pathique	-11.8787
ption	-11.8787
solu	-11.8787
tracte	-11.8787
uillez	-11.8787
uits	-11.8787
usias	-11.8787
utee	-11.8787
vious	-11.8787
ymo	-11.8787
▁actuel	-11.8787
▁appart	-11.8787
▁begin	-11.8787
▁competit	-11.8787
▁disapp	-11.8787
▁electr	-11.8787
▁exec	-11.8787
▁flabb	-11.8787
▁handicap	-11.8787
▁indisp	-11.8787
▁jack	-11.8787
▁kni	-11.8787
▁maigri	-11.8787
▁preparati	-11.8787
▁renom	-11.8787
▁soph	-11.8787
▁suspicio	-11.8787
▁violin	-11.8787
▁violon	-11.8787
appl	-11.8787
estation	-11.8787
appoint	-11.8787
coutume	-11.8787
gestion	-11.8787
icile	-11.8787
luc	-11.8787
nations	-11.8787
uages	-11.8787
uillet	-11.8787
▁allema	-11.8787
▁interna	-11.8787
nchante	-11.8788
▁discour	-11.8788
▁muni	-11.8788
▁russia	-11.8788
cieuse	-11.8788
hiver	-11.8788
arist	-11.8788
▁defi	-11.8788
▁scho	-11.8788
quille	-11.8788
monta	-11.8788
omor	-11.8788
▁arra	-11.8788
dev	-11.8788
corrig	-11.8788
sonnes	-11.8788
▁attit	-11.8788
vier	-11.8788
metic	-11.8788
▁flo	-11.8788
▁heartb	-11.8788
cheve	-11.8788
▁officie	-11.8788
plu	-11.8788
▁appren	-11.8788
spe	-11.8788
▁mili	-11.8788
illite	-11.8788
rap	-11.8788
▁requi	-11.8788
dy	-11.8788
obre	-11.8788
gat	-11.8788
ifique	-11.8788
▁distant	-11.8788
▁boul	-11.8788
▁ske	-11.8788
▁poiss	-11.8788
ority	-11.8788
issent	-11.8788
▁televis	-11.8788
clar	-11.8788
mum	-11.8788
ink	-11.8788
rassed	-11.8788
▁ram	-11.8788
oix	-11.8788
▁flu	-11.8788
literat	-11.8788
ential	-11.8788
mic	-11.8788
quis	-11.8788
cites	-11.8788
ceful	-11.8788
nage	-11.8788
pper	-11.8788
edule	-11.8788
iffe	-11.8788
anites	-11.8788
▁gui	-11.8788
▁raf	-11.8788
lter	-11.8788
amin	-11.8788
▁em	-11.8788
ssifs	-11.8788
▁accou	-11.8788
mend	-11.8788
ence	-11.8788
▁fear	-11.8788
vete	-11.8788
lla	-11.8788
olding	-11.8788
asque	-11.8788
cated	-11.8789
▁rug	-11.8789
▁poss	-11.8789
usses	-11.8789
▁hone	-11.8789
natique	-11.8789
▁joy	-11.8789
▁pie	-11.8789
ilure	-11.8789
ushing	-11.8789
▁artic	-11.8789
▁exp	-11.8789
ication	-11.8789
▁ada	-11.8789
oiling	-11.8789
ination	-11.8789
▁voy	-11.8789
carte	-11.8789
▁path	-11.8789
fied	-11.8789
rcons	-11.8789
ratin	-11.8789
aud	-11.8789
ouris	-11.8789
ounded	-11.8789
trousse	-11.8789
ambi	-11.8789
ariat	-11.8789
twriter	-11.8789
ousser	-11.8789
▁allow	-11.8789
▁gri	-11.8789
culte	-11.879
icted	-11.879
diant	-11.879
ged	-11.879
nite	-11.879
dienne	-11.879
ueux	-11.879
issons	-11.879
ainement	-11.879
taine	-11.879
▁pit	-11.879
urite	-11.879
▁gai	-11.879
uation	-11.879
▁fam	-11.879
exte	-11.879
▁traf	-11.879
damage	-11.8791
ana	-11.8791
edient	-11.8791
▁journa	-11.8791
naissante	-11.8791
manie	-11.8791
dnes	-11.8791
lettes	-11.8791
▁sout	-11.8791
▁emba	-11.8791
mement	-11.8792
ished	-11.8792
uie	-11.8792
terf	-11.8792
erge	-11.8792
▁biz	-11.8792
nale	-11.8792
▁grat	-11.8792
enth	-11.8792
tive	-11.8793
▁mania	-11.8793
fie	-11.8793
earing	-11.8793
dding	-11.8793
urant	-11.8793
natif	-11.8793
▁parent	-11.8793
▁gues	-11.8793
▁bud	-11.8793
▁aga	-11.8794
iteur	-11.8794
alon	-11.8794
stin	-11.8794
heur	-11.8794
upe	-11.8794
▁hai	-11.8794
▁remplac	-11.8794
geon	-11.8794
wning	-11.8794
▁tend	-11.8794
▁styl	-11.8795
toni	-11.8795
erves	-11.8795
▁faith	-11.8795
▁outrage	-11.8795
ntier	-11.8795
morr	-11.8795
leux	-11.8795
phet	-11.8795
▁habituel	-11.8795
mbass	-11.8796
ker	-11.8797
▁char	-11.8798
▁consi	-11.8798
▁paint	-11.8798
ously	-11.8798
▁anno	-11.8798
▁effra	-11.8798
ited	-11.8798
▁u	-11.8799
▁dessine	-11.8799
▁aw	-11.8799
▁ble	-11.8799
rocher	-11.88
mant	-11.88
stle	-11.8801
rgne	-11.8801
enni	-11.8801
conduite	-11.8802
▁fur	-11.8802
▁conn	-11.8802
nsable	-11.8802
▁entiere	-11.8803
rique	-11.8803
▁incon	-11.8804
asting	-11.8804
▁cell	-11.8804
nagement	-11.8804
entiel	-11.8805
chard	-11.8805
▁temper	-11.8805
▁pat	-11.8805
▁conce	-11.8807
▁liste	-11.8807
nement	-11.8807
▁survive	-11.8807
erite	-11.8807
iring	-11.8807
rious	-11.8807
ume	-11.8807
gants	-11.8808
ians	-11.8808
pression	-11.8809
belle	-11.881
ily	-11.881
▁ru	-11.8811
mas	-11.8811
motif	-11.8812
pr	-11.8813
▁pens	-11.8813
ini	-11.8813
mple	-11.8814
chauffe	-11.8814
▁cardi	-11.8816
pere	-11.8817
▁amaz	-11.8817
▁arrete	-11.8817
servateurs	-11.8818
socie	-11.8819
▁incroya	-11.882
amp	-11.882
▁engagee	-11.882
▁dom	-11.8821
hommes	-11.8821
▁deal	-11.8822
ample	-11.8822
▁spo	-11.8823
urt	-11.8825
▁th	-11.8826
ances	-11.8827
sence	-11.8827
▁spit	-11.8828
sung	-11.8829
illons	-11.8829
ising	-11.883
sau	-11.8831
gir	-11.8831
cks	-11.8831
▁leve	-11.8832
iquee	-11.8832
conne	-11.8832
▁dri	-11.8833
uyons	-11.8834
zed	-11.8835
ttes	-11.8835
▁accepte	-11.8836
oiss	-11.8836
▁cara	-11.8836
▁lag	-11.8836
cle	-11.8837
▁gre	-11.8838
tating	-11.8838
▁derniere	-11.8839
▁entier	-11.8839
▁som	-11.8842
ecess	-11.8843
iere	-11.8845
erez	-11.8846
reux	-11.8848
des	-11.885
omics	-11.885
arbre	-11.8854
ung	-11.8856
ics	-11.8857
shor	-11.8857
▁enco	-11.8857
eeding	-11.8858
▁haute	-11.8858
▁lu	-11.8861
ssy	-11.8862
duire	-11.8862
▁attenti	-11.8862
▁env	-11.8864
pente	-11.8864
veau	-11.8865
▁anal	-11.8866
eek	-11.8867
ardes	-11.8868
▁decon	-11.887
▁descend	-11.8872
est	-11.8874
▁impliquee	-11.8877
ins	-11.8877
chief	-11.8878
aracter	-11.8879
nee	-11.8879
site	-11.888
▁para	-11.8883
rush	-11.8883
see	-11.8884
erf	-11.8885
▁parte	-11.8888
lure	-11.8889
▁adapt	-11.889
▁height	-11.8892
zz	-11.8895
▁blinde	-11.8896
▁say	-11.8896
erbe	-11.8896
▁aimi	-11.8897
▁confi	-11.8897
este	-11.89
▁since	-11.8901
▁lance	-11.8908
!	-14.7343
?	-14.7344
q	-14.7345
w	-14.7346
j	-14.7347
.	-14.7348
